node {
  name: "global_step/Initializer/zeros"
  op: "Const"
  attr {
    key: "_class"
    value {
      list {
        s: "loc:@global_step"
      }
    }
  }
  attr {
    key: "_output_shapes"
    value {
      list {
        shape {
        }
      }
    }
  }
  attr {
    key: "dtype"
    value {
      type: DT_INT64
    }
  }
  attr {
    key: "value"
    value {
      tensor {
        dtype: DT_INT64
        tensor_shape {
        }
        int64_val: 0
      }
    }
  }
}
node {
  name: "global_step"
  op: "VariableV2"
  attr {
    key: "_class"
    value {
      list {
        s: "loc:@global_step"
      }
    }
  }
  attr {
    key: "_output_shapes"
    value {
      list {
        shape {
        }
      }
    }
  }
  attr {
    key: "container"
    value {
      s: ""
    }
  }
  attr {
    key: "dtype"
    value {
      type: DT_INT64
    }
  }
  attr {
    key: "shape"
    value {
      shape {
      }
    }
  }
  attr {
    key: "shared_name"
    value {
      s: ""
    }
  }
}
node {
  name: "global_step/Assign"
  op: "Assign"
  input: "global_step"
  input: "global_step/Initializer/zeros"
  attr {
    key: "T"
    value {
      type: DT_INT64
    }
  }
  attr {
    key: "_class"
    value {
      list {
        s: "loc:@global_step"
      }
    }
  }
  attr {
    key: "_output_shapes"
    value {
      list {
        shape {
        }
      }
    }
  }
  attr {
    key: "use_locking"
    value {
      b: true
    }
  }
  attr {
    key: "validate_shape"
    value {
      b: true
    }
  }
}
node {
  name: "global_step/read"
  op: "Identity"
  input: "global_step"
  attr {
    key: "T"
    value {
      type: DT_INT64
    }
  }
  attr {
    key: "_class"
    value {
      list {
        s: "loc:@global_step"
      }
    }
  }
  attr {
    key: "_output_shapes"
    value {
      list {
        shape {
        }
      }
    }
  }
}
node {
  name: "global_step/IsVariableInitialized"
  op: "IsVariableInitialized"
  input: "global_step"
  attr {
    key: "_class"
    value {
      list {
        s: "loc:@global_step"
      }
    }
  }
  attr {
    key: "_output_shapes"
    value {
      list {
        shape {
        }
      }
    }
  }
  attr {
    key: "dtype"
    value {
      type: DT_INT64
    }
  }
}
node {
  name: "global_step/cond/Switch"
  op: "Switch"
  input: "global_step/IsVariableInitialized"
  input: "global_step/IsVariableInitialized"
  attr {
    key: "T"
    value {
      type: DT_BOOL
    }
  }
  attr {
    key: "_output_shapes"
    value {
      list {
        shape {
        }
        shape {
        }
      }
    }
  }
}
node {
  name: "global_step/cond/switch_t"
  op: "Identity"
  input: "global_step/cond/Switch:1"
  attr {
    key: "T"
    value {
      type: DT_BOOL
    }
  }
  attr {
    key: "_output_shapes"
    value {
      list {
        shape {
        }
      }
    }
  }
}
node {
  name: "global_step/cond/switch_f"
  op: "Identity"
  input: "global_step/cond/Switch"
  attr {
    key: "T"
    value {
      type: DT_BOOL
    }
  }
  attr {
    key: "_output_shapes"
    value {
      list {
        shape {
        }
      }
    }
  }
}
node {
  name: "global_step/cond/pred_id"
  op: "Identity"
  input: "global_step/IsVariableInitialized"
  attr {
    key: "T"
    value {
      type: DT_BOOL
    }
  }
  attr {
    key: "_output_shapes"
    value {
      list {
        shape {
        }
      }
    }
  }
}
node {
  name: "global_step/cond/read"
  op: "Identity"
  input: "global_step/cond/read/Switch:1"
  attr {
    key: "T"
    value {
      type: DT_INT64
    }
  }
  attr {
    key: "_output_shapes"
    value {
      list {
        shape {
        }
      }
    }
  }
}
node {
  name: "global_step/cond/read/Switch"
  op: "RefSwitch"
  input: "global_step"
  input: "global_step/cond/pred_id"
  attr {
    key: "T"
    value {
      type: DT_INT64
    }
  }
  attr {
    key: "_class"
    value {
      list {
        s: "loc:@global_step"
      }
    }
  }
  attr {
    key: "_output_shapes"
    value {
      list {
        shape {
        }
        shape {
        }
      }
    }
  }
}
node {
  name: "global_step/cond/Switch_1"
  op: "Switch"
  input: "global_step/Initializer/zeros"
  input: "global_step/cond/pred_id"
  attr {
    key: "T"
    value {
      type: DT_INT64
    }
  }
  attr {
    key: "_class"
    value {
      list {
        s: "loc:@global_step"
      }
    }
  }
  attr {
    key: "_output_shapes"
    value {
      list {
        shape {
        }
        shape {
        }
      }
    }
  }
}
node {
  name: "global_step/cond/Merge"
  op: "Merge"
  input: "global_step/cond/Switch_1"
  input: "global_step/cond/read"
  attr {
    key: "N"
    value {
      i: 2
    }
  }
  attr {
    key: "T"
    value {
      type: DT_INT64
    }
  }
  attr {
    key: "_output_shapes"
    value {
      list {
        shape {
        }
        shape {
        }
      }
    }
  }
}
node {
  name: "global_step/add/y"
  op: "Const"
  attr {
    key: "_output_shapes"
    value {
      list {
        shape {
        }
      }
    }
  }
  attr {
    key: "dtype"
    value {
      type: DT_INT64
    }
  }
  attr {
    key: "value"
    value {
      tensor {
        dtype: DT_INT64
        tensor_shape {
        }
        int64_val: 0
      }
    }
  }
}
node {
  name: "global_step/add"
  op: "Add"
  input: "global_step/cond/Merge"
  input: "global_step/add/y"
  attr {
    key: "T"
    value {
      type: DT_INT64
    }
  }
  attr {
    key: "_output_shapes"
    value {
      list {
        shape {
        }
      }
    }
  }
}
node {
  name: "tensors/component_0"
  op: "Const"
  device: "/device:CPU:0"
  attr {
    key: "_output_shapes"
    value {
      list {
        shape {
          dim {
            size: 659
          }
          dim {
            size: 20
          }
          dim {
            size: 1
          }
        }
      }
    }
  }
  attr {
    key: "dtype"
    value {
      type: DT_FLOAT
    }
  }
  attr {
    key: "value"
    value {
      tensor {
        dtype: DT_FLOAT
        tensor_shape {
          dim {
            size: 659
          }
          dim {
            size: 20
          }
          dim {
            size: 1
          }
        }
        tensor_content: "lK\004?U\226v?)T\335?\3115\232?uV\371?\346\332\262?V\027\022@\312|\331?$\016[@\225\254\304?H)\214?v\014\312?z\025\017@\262o\032@y\253\352?\024\034F@\201v\n@\024H\020@IP>@\375\315\244@\3115\232?uV\371?\346\332\262?V\027\022@\312|\331?$\016[@\225\254\304?H)\214?v\014\312?z\025\017@\262o\032@y\253\352?\024\034F@\201v\n@\024H\020@IP>@\375\315\244@0\361\264?jI0@\331s\027@V\027\022@\312|\331?$\016[@\225\254\304?H)\214?v\014\312?z\025\017@\262o\032@y\253\352?\024\034F@\201v\n@\024H\020@IP>@\375\315\244@0\361\264?jI0@\331s\027@\302\237\005@\034\306v@dDJ@\225\254\304?H)\214?v\014\312?z\025\017@\262o\032@y\253\352?\024\034F@\201v\n@\024H\020@IP>@\375\315\244@0\361\264?jI0@\331s\027@\302\237\005@\034\306v@dDJ@\rp\'@o<,@^h\251?z\025\017@\262o\032@y\253\352?\024\034F@\201v\n@\024H\020@IP>@\375\315\244@0\361\264?jI0@\331s\027@\302\237\005@\034\306v@dDJ@\rp\'@o<,@^h\251?\316V\r@\352b\250?\33249@\024\034F@\201v\n@\024H\020@IP>@\375\315\244@0\361\264?jI0@\331s\027@\302\237\005@\034\306v@dDJ@\rp\'@o<,@^h\251?\316V\r@\352b\250?\33249@\261\017\232@o\311\370?\341\346\023@IP>@\375\315\244@0\361\264?jI0@\331s\027@\302\237\005@\034\306v@dDJ@\rp\'@o<,@^h\251?\316V\r@\352b\250?\33249@\261\017\232@o\311\370?\341\346\023@\3661\211?O0\305?4\347\006@jI0@\331s\027@\302\237\005@\034\306v@dDJ@\rp\'@o<,@^h\251?\316V\r@\352b\250?\33249@\261\017\232@o\311\370?\341\346\023@\3661\211?O0\305?4\347\006@>\237\311?8\237\345?\253;\003@\034\306v@dDJ@\rp\'@o<,@^h\251?\316V\r@\352b\250?\33249@\261\017\232@o\311\370?\341\346\023@\3661\211?O0\305?4\347\006@>\237\311?8\237\345?\253;\003@\207\225&@\221\231\223?\346\nr?o<,@^h\251?\316V\r@\352b\250?\33249@\261\017\232@o\311\370?\341\346\023@\3661\211?O0\305?4\347\006@>\237\311?8\237\345?\253;\003@\207\225&@\221\231\223?\346\nr?R\365\300?\363r\037@1WU?\352b\250?\33249@\261\017\232@o\311\370?\341\346\023@\3661\211?O0\305?4\347\006@>\237\311?8\237\345?\253;\003@\207\225&@\221\231\223?\346\nr?R\365\300?\363r\037@1WU?g,\253?\330S\310?\021_\251?o\311\370?\341\346\023@\3661\211?O0\305?4\347\006@>\237\311?8\237\345?\253;\003@\207\225&@\221\231\223?\346\nr?R\365\300?\363r\037@1WU?g,\253?\330S\310?\021_\251?\023`,@e\377\021@9b\222?O0\305?4\347\006@>\237\311?8\237\345?\253;\003@\207\225&@\221\231\223?\346\nr?R\365\300?\363r\037@1WU?g,\253?\330S\310?\021_\251?\023`,@e\377\021@9b\222?U\307\301?\212\345\302?p$\035@8\237\345?\253;\003@\207\225&@\221\231\223?\346\nr?R\365\300?\363r\037@1WU?g,\253?\330S\310?\021_\251?\023`,@e\377\021@9b\222?U\307\301?\212\345\302?p$\035@\r\t\032@\037\024\336?\036r\240?\221\231\223?\346\nr?R\365\300?\363r\037@1WU?g,\253?\330S\310?\021_\251?\023`,@e\377\021@9b\222?U\307\301?\212\345\302?p$\035@\r\t\032@\037\024\336?\036r\240?\242J\014@T\266\220?\373\236\340?\363r\037@1WU?g,\253?\330S\310?\021_\251?\023`,@e\377\021@9b\222?U\307\301?\212\345\302?p$\035@\r\t\032@\037\024\336?\036r\240?\242J\014@T\266\220?\373\236\340?xS\345?\350[\307?\371z\033@\330S\310?\021_\251?\023`,@e\377\021@9b\222?U\307\301?\212\345\302?p$\035@\r\t\032@\037\024\336?\036r\240?\242J\014@T\266\220?\373\236\340?xS\345?\350[\307?\371z\033@\222M\214@\227\266\350?\342\244\247?e\377\021@9b\222?U\307\301?\212\345\302?p$\035@\r\t\032@\037\024\336?\036r\240?\242J\014@T\266\220?\373\236\340?xS\345?\350[\307?\371z\033@\222M\214@\227\266\350?\342\244\247?T\177\270?(\266Y@\277\207k@\212\345\302?p$\035@\r\t\032@\037\024\336?\036r\240?\242J\014@T\266\220?\373\236\340?xS\345?\350[\307?\371z\033@\222M\214@\227\266\350?\342\244\247?T\177\270?(\266Y@\277\207k@\217\'\266?1l\013@O\007\001@\037\024\336?\036r\240?\242J\014@T\266\220?\373\236\340?xS\345?\350[\307?\371z\033@\222M\214@\227\266\350?\342\244\247?T\177\270?(\266Y@\277\207k@\217\'\266?1l\013@O\007\001@\350\036\253?\335\334\005@(\024\363?T\266\220?\373\236\340?xS\345?\350[\307?\371z\033@\222M\214@\227\266\350?\342\244\247?T\177\270?(\266Y@\277\207k@\217\'\266?1l\013@O\007\001@\350\036\253?\335\334\005@(\024\363?\232\000\377?\224)!@]\374\235@\350[\307?\371z\033@\222M\214@\227\266\350?\342\244\247?T\177\270?(\266Y@\277\207k@\217\'\266?1l\013@O\007\001@\350\036\253?\335\334\005@(\024\363?\232\000\377?\224)!@]\374\235@aQ\264?\010\225\262?\026\003\244?\227\266\350?\342\244\247?T\177\270?(\266Y@\277\207k@\217\'\266?1l\013@O\007\001@\350\036\253?\335\334\005@(\024\363?\232\000\377?\224)!@]\374\235@aQ\264?\010\225\262?\026\003\244?\352\340\222?Q1\307?\204\202\014@(\266Y@\277\207k@\217\'\266?1l\013@O\007\001@\350\036\253?\335\334\005@(\024\363?\232\000\377?\224)!@]\374\235@aQ\264?\010\225\262?\026\003\244?\352\340\222?Q1\307?\204\202\014@0c\216?\375X\270?kR\375?1l\013@O\007\001@\350\036\253?\335\334\005@(\024\363?\232\000\377?\224)!@]\374\235@aQ\264?\010\225\262?\026\003\244?\352\340\222?Q1\307?\204\202\014@0c\216?\375X\270?kR\375?\342/`@\303\177\t@\253\351$@\335\334\005@(\024\363?\232\000\377?\224)!@]\374\235@aQ\264?\010\225\262?\026\003\244?\352\340\222?Q1\307?\204\202\014@0c\216?\375X\270?kR\375?\342/`@\303\177\t@\253\351$@?\365\006@\305\265\035@\304\001L@\224)!@]\374\235@aQ\264?\010\225\262?\026\003\244?\352\340\222?Q1\307?\204\202\014@0c\216?\375X\270?kR\375?\342/`@\303\177\t@\253\351$@?\365\006@\305\265\035@\304\001L@\375V.@\031\321\217@P\306c@\010\225\262?\026\003\244?\352\340\222?Q1\307?\204\202\014@0c\216?\375X\270?kR\375?\342/`@\303\177\t@\253\351$@?\365\006@\305\265\035@\304\001L@\375V.@\031\321\217@P\306c@\023\377P@\341\361j@>P\230@Q1\307?\204\202\014@0c\216?\375X\270?kR\375?\342/`@\303\177\t@\253\351$@?\365\006@\305\265\035@\304\001L@\375V.@\031\321\217@P\306c@\023\377P@\341\361j@>P\230@\333\246;@K,\006@?&\354?\375X\270?kR\375?\342/`@\303\177\t@\253\351$@?\365\006@\305\265\035@\304\001L@\375V.@\031\321\217@P\306c@\023\377P@\341\361j@>P\230@\333\246;@K,\006@?&\354?(P\n@\216\220\005@\251\333\017@\303\177\t@\253\351$@?\365\006@\305\265\035@\304\001L@\375V.@\031\321\217@P\306c@\023\377P@\341\361j@>P\230@\333\246;@K,\006@?&\354?(P\n@\216\220\005@\251\333\017@\325M\301?\204N\014@\200w\023@\305\265\035@\304\001L@\375V.@\031\321\217@P\306c@\023\377P@\341\361j@>P\230@\333\246;@K,\006@?&\354?(P\n@\216\220\005@\251\333\017@\325M\301?\204N\014@\200w\023@@\301\016@\217k;@\360\377b@\031\321\217@P\306c@\023\377P@\341\361j@>P\230@\333\246;@K,\006@?&\354?(P\n@\216\220\005@\251\333\017@\325M\301?\204N\014@\200w\023@@\301\016@\217k;@\360\377b@\230\260\036@t\224\036@\237\\2@\341\361j@>P\230@\333\246;@K,\006@?&\354?(P\n@\216\220\005@\251\333\017@\325M\301?\204N\014@\200w\023@@\301\016@\217k;@\360\377b@\230\260\036@t\224\036@\237\\2@\031\213\032@%\222\256?\361H\352?K,\006@?&\354?(P\n@\216\220\005@\251\333\017@\325M\301?\204N\014@\200w\023@@\301\016@\217k;@\360\377b@\230\260\036@t\224\036@\237\\2@\031\213\032@%\222\256?\361H\352?\272\n\374?\225\372\035@`Q\345?\216\220\005@\251\333\017@\325M\301?\204N\014@\200w\023@@\301\016@\217k;@\360\377b@\230\260\036@t\224\036@\237\\2@\031\213\032@%\222\256?\361H\352?\272\n\374?\225\372\035@`Q\345?\226\215>@\022\307\022@\006\200\353?\204N\014@\200w\023@@\301\016@\217k;@\360\377b@\230\260\036@t\224\036@\237\\2@\031\213\032@%\222\256?\361H\352?\272\n\374?\225\372\035@`Q\345?\226\215>@\022\307\022@\006\200\353?c\300\005@A\344\014@\237\243\201@\217k;@\360\377b@\230\260\036@t\224\036@\237\\2@\031\213\032@%\222\256?\361H\352?\272\n\374?\225\372\035@`Q\345?\226\215>@\022\307\022@\006\200\353?c\300\005@A\344\014@\237\243\201@\036\204\261@\307\t\024@\355\304\377?t\224\036@\237\\2@\031\213\032@%\222\256?\361H\352?\272\n\374?\225\372\035@`Q\345?\226\215>@\022\307\022@\006\200\353?c\300\005@A\344\014@\237\243\201@\036\204\261@\307\t\024@\355\304\377?v\301=@Op\013@\240p4@%\222\256?\361H\352?\272\n\374?\225\372\035@`Q\345?\226\215>@\022\307\022@\006\200\353?c\300\005@A\344\014@\237\243\201@\036\204\261@\307\t\024@\355\304\377?v\301=@Op\013@\240p4@\271\340\034@\317\3255@\231K\025@\225\372\035@`Q\345?\226\215>@\022\307\022@\006\200\353?c\300\005@A\344\014@\237\243\201@\036\204\261@\307\t\024@\355\304\377?v\301=@Op\013@\240p4@\271\340\034@\317\3255@\231K\025@\304d\202@\'\307\300?bA\224?\022\307\022@\006\200\353?c\300\005@A\344\014@\237\243\201@\036\204\261@\307\t\024@\355\304\377?v\301=@Op\013@\240p4@\271\340\034@\317\3255@\231K\025@\304d\202@\'\307\300?bA\224?\226\256\275?\010\247\212?\226\251B?A\344\014@\237\243\201@\036\204\261@\307\t\024@\355\304\377?v\301=@Op\013@\240p4@\271\340\034@\317\3255@\231K\025@\304d\202@\'\307\300?bA\224?\226\256\275?\010\247\212?\226\251B?G\360o?\236\311\001@\027U\334?\307\t\024@\355\304\377?v\301=@Op\013@\240p4@\271\340\034@\317\3255@\231K\025@\304d\202@\'\307\300?bA\224?\226\256\275?\010\247\212?\226\251B?G\360o?\236\311\001@\027U\334?H\225\245?\314\204\254?\214\272i?Op\013@\240p4@\271\340\034@\317\3255@\231K\025@\304d\202@\'\307\300?bA\224?\226\256\275?\010\247\212?\226\251B?G\360o?\236\311\001@\027U\334?H\225\245?\314\204\254?\214\272i?\233\233\217?N%\331?\352\023\303?\317\3255@\231K\025@\304d\202@\'\307\300?bA\224?\226\256\275?\010\247\212?\226\251B?G\360o?\236\311\001@\027U\334?H\225\245?\314\204\254?\214\272i?\233\233\217?N%\331?\352\023\303?0-\237?h\252\034@\2212\r@\'\307\300?bA\224?\226\256\275?\010\247\212?\226\251B?G\360o?\236\311\001@\027U\334?H\225\245?\314\204\254?\214\272i?\233\233\217?N%\331?\352\023\303?0-\237?h\252\034@\2212\r@\343\253\252?\236\202\334?\001dU@\010\247\212?\226\251B?G\360o?\236\311\001@\027U\334?H\225\245?\314\204\254?\214\272i?\233\233\217?N%\331?\352\023\303?0-\237?h\252\034@\2212\r@\343\253\252?\236\202\334?\001dU@\305b(@hte@\367\3023@\236\311\001@\027U\334?H\225\245?\314\204\254?\214\272i?\233\233\217?N%\331?\352\023\303?0-\237?h\252\034@\2212\r@\343\253\252?\236\202\334?\001dU@\305b(@hte@\367\3023@\302y7@\004\3146@\363l~@\314\204\254?\214\272i?\233\233\217?N%\331?\352\023\303?0-\237?h\252\034@\2212\r@\343\253\252?\236\202\334?\001dU@\305b(@hte@\367\3023@\302y7@\004\3146@\363l~@\001\326)@\212\214\337?Ch\275?N%\331?\352\023\303?0-\237?h\252\034@\2212\r@\343\253\252?\236\202\334?\001dU@\305b(@hte@\367\3023@\302y7@\004\3146@\363l~@\001\326)@\212\214\337?Ch\275?\326k\256?\\\036\275?\014\351\273?h\252\034@\2212\r@\343\253\252?\236\202\334?\001dU@\305b(@hte@\367\3023@\302y7@\004\3146@\363l~@\001\326)@\212\214\337?Ch\275?\326k\256?\\\036\275?\014\351\273?\341\326\220?C\215\242?\363\001\035@\236\202\334?\001dU@\305b(@hte@\367\3023@\302y7@\004\3146@\363l~@\001\326)@\212\214\337?Ch\275?\326k\256?\\\036\275?\014\351\273?\341\326\220?C\215\242?\363\001\035@.:~@\350\035\367?\302\351\216?hte@\367\3023@\302y7@\004\3146@\363l~@\001\326)@\212\214\337?Ch\275?\326k\256?\\\036\275?\014\351\273?\341\326\220?C\215\242?\363\001\035@.:~@\350\035\367?\302\351\216?b\004\375?\341\271\021@\256{\212?\004\3146@\363l~@\001\326)@\212\214\337?Ch\275?\326k\256?\\\036\275?\014\351\273?\341\326\220?C\215\242?\363\001\035@.:~@\350\035\367?\302\351\216?b\004\375?\341\271\021@\256{\212?a%\203?\362\022\t@\273\006K@\212\214\337?Ch\275?\326k\256?\\\036\275?\014\351\273?\341\326\220?C\215\242?\363\001\035@.:~@\350\035\367?\302\351\216?b\004\375?\341\271\021@\256{\212?a%\203?\362\022\t@\273\006K@\305\2667@\251\n*@\317\310\332?\\\036\275?\014\351\273?\341\326\220?C\215\242?\363\001\035@.:~@\350\035\367?\302\351\216?b\004\375?\341\271\021@\256{\212?a%\203?\362\022\t@\273\006K@\305\2667@\251\n*@\317\310\332?\217\317\354?\223\227\266?s-\032@C\215\242?\363\001\035@.:~@\350\035\367?\302\351\216?b\004\375?\341\271\021@\256{\212?a%\203?\362\022\t@\273\006K@\305\2667@\251\n*@\317\310\332?\217\317\354?\223\227\266?s-\032@\351\000o@\203)\"@-H\351?\350\035\367?\302\351\216?b\004\375?\341\271\021@\256{\212?a%\203?\362\022\t@\273\006K@\305\2667@\251\n*@\317\310\332?\217\317\354?\223\227\266?s-\032@\351\000o@\203)\"@-H\351?\214\231\354?\026\035o@5F\321?\341\271\021@\256{\212?a%\203?\362\022\t@\273\006K@\305\2667@\251\n*@\317\310\332?\217\317\354?\223\227\266?s-\032@\351\000o@\203)\"@-H\351?\214\231\354?\026\035o@5F\321?\323*\324?\206\326\217?\222P\304?\362\022\t@\273\006K@\305\2667@\251\n*@\317\310\332?\217\317\354?\223\227\266?s-\032@\351\000o@\203)\"@-H\351?\214\231\354?\026\035o@5F\321?\323*\324?\206\326\217?\222P\304?n\241*@\352~\026@\305\301X?\251\n*@\317\310\332?\217\317\354?\223\227\266?s-\032@\351\000o@\203)\"@-H\351?\214\231\354?\026\035o@5F\321?\323*\324?\206\326\217?\222P\304?n\241*@\352~\026@\305\301X?\304\216\240?H\315F?\023\304\211?\223\227\266?s-\032@\351\000o@\203)\"@-H\351?\214\231\354?\026\035o@5F\321?\323*\324?\206\326\217?\222P\304?n\241*@\352~\026@\305\301X?\304\216\240?H\315F?\023\304\211?)\025\216?\374x\016@\350:\337?\203)\"@-H\351?\214\231\354?\026\035o@5F\321?\323*\324?\206\326\217?\222P\304?n\241*@\352~\026@\305\301X?\304\216\240?H\315F?\023\304\211?)\025\216?\374x\016@\350:\337?iR\236?\313X\220?\313\300\357?\026\035o@5F\321?\323*\324?\206\326\217?\222P\304?n\241*@\352~\026@\305\301X?\304\216\240?H\315F?\023\304\211?)\025\216?\374x\016@\350:\337?iR\236?\313X\220?\313\300\357?\232\271\204?\274z\347?\270\237W@\206\326\217?\222P\304?n\241*@\352~\026@\305\301X?\304\216\240?H\315F?\023\304\211?)\025\216?\374x\016@\350:\337?iR\236?\313X\220?\313\300\357?\232\271\204?\274z\347?\270\237W@\350\327\023@#O\205?q\311\321?\352~\026@\305\301X?\304\216\240?H\315F?\023\304\211?)\025\216?\374x\016@\350:\337?iR\236?\313X\220?\313\300\357?\232\271\204?\274z\347?\270\237W@\350\327\023@#O\205?q\311\321?\367F\217?R\000\273?)R\303?H\315F?\023\304\211?)\025\216?\374x\016@\350:\337?iR\236?\313X\220?\313\300\357?\232\271\204?\274z\347?\270\237W@\350\327\023@#O\205?q\311\321?\367F\217?R\000\273?)R\303?x\001\244?\366\372\263?\337\205a?\374x\016@\350:\337?iR\236?\313X\220?\313\300\357?\232\271\204?\274z\347?\270\237W@\350\327\023@#O\205?q\311\321?\367F\217?R\000\273?)R\303?x\001\244?\366\372\263?\337\205a?\022\242)?\222\321\240?\003b\234?\313X\220?\313\300\357?\232\271\204?\274z\347?\270\237W@\350\327\023@#O\205?q\311\321?\367F\217?R\000\273?)R\303?x\001\244?\366\372\263?\337\205a?\022\242)?\222\321\240?\003b\234?-\233\272?k\223\002@\347\375\372?\274z\347?\270\237W@\350\327\023@#O\205?q\311\321?\367F\217?R\000\273?)R\303?x\001\244?\366\372\263?\337\205a?\022\242)?\222\321\240?\003b\234?-\233\272?k\223\002@\347\375\372?\365\262\351?Fs\004@\364\372\314?#O\205?q\311\321?\367F\217?R\000\273?)R\303?x\001\244?\366\372\263?\337\205a?\022\242)?\222\321\240?\003b\234?-\233\272?k\223\002@\347\375\372?\365\262\351?Fs\004@\364\372\314?\355\247\251?\020\013\r@E/\021@R\000\273?)R\303?x\001\244?\366\372\263?\337\205a?\022\242)?\222\321\240?\003b\234?-\233\272?k\223\002@\347\375\372?\365\262\351?Fs\004@\364\372\314?\355\247\251?\020\013\r@E/\021@\005f\010@\362\220\374?\013\347\r@\366\372\263?\337\205a?\022\242)?\222\321\240?\003b\234?-\233\272?k\223\002@\347\375\372?\365\262\351?Fs\004@\364\372\314?\355\247\251?\020\013\r@E/\021@\005f\010@\362\220\374?\013\347\r@\354\257h@]\021\227?\240\231\311?\222\321\240?\003b\234?-\233\272?k\223\002@\347\375\372?\365\262\351?Fs\004@\364\372\314?\355\247\251?\020\013\r@E/\021@\005f\010@\362\220\374?\013\347\r@\354\257h@]\021\227?\240\231\311?`\215\004@\"\335#@\34792@k\223\002@\347\375\372?\365\262\351?Fs\004@\364\372\314?\355\247\251?\020\013\r@E/\021@\005f\010@\362\220\374?\013\347\r@\354\257h@]\021\227?\240\231\311?`\215\004@\"\335#@\34792@\307\031\037@\302QC@\241b\010@Fs\004@\364\372\314?\355\247\251?\020\013\r@E/\021@\005f\010@\362\220\374?\013\347\r@\354\257h@]\021\227?\240\231\311?`\215\004@\"\335#@\34792@\307\031\037@\302QC@\241b\010@\261H\376?\034\333\365?s\243\355?\020\013\r@E/\021@\005f\010@\362\220\374?\013\347\r@\354\257h@]\021\227?\240\231\311?`\215\004@\"\335#@\34792@\307\031\037@\302QC@\241b\010@\261H\376?\034\333\365?s\243\355?\242\243!@Q~B@\014\177W@\362\220\374?\013\347\r@\354\257h@]\021\227?\240\231\311?`\215\004@\"\335#@\34792@\307\031\037@\302QC@\241b\010@\261H\376?\034\333\365?s\243\355?\242\243!@Q~B@\014\177W@c\227]@\366\027\213@\032K\025@]\021\227?\240\231\311?`\215\004@\"\335#@\34792@\307\031\037@\302QC@\241b\010@\261H\376?\034\333\365?s\243\355?\242\243!@Q~B@\014\177W@c\227]@\366\027\213@\032K\025@\220\316\375?T\266[@5\320*@\"\335#@\34792@\307\031\037@\302QC@\241b\010@\261H\376?\034\333\365?s\243\355?\242\243!@Q~B@\014\177W@c\227]@\366\027\213@\032K\025@\220\316\375?T\266[@5\320*@`I\324?\265i\346?}\312\"@\302QC@\241b\010@\261H\376?\034\333\365?s\243\355?\242\243!@Q~B@\014\177W@c\227]@\366\027\213@\032K\025@\220\316\375?T\266[@5\320*@`I\324?\265i\346?}\312\"@\365*`A\037\246\207@\274\372\300?\034\333\365?s\243\355?\242\243!@Q~B@\014\177W@c\227]@\366\027\213@\032K\025@\220\316\375?T\266[@5\320*@`I\324?\265i\346?}\312\"@\365*`A\037\246\207@\274\372\300?~\003\347?tVB@\rk\273?Q~B@\014\177W@c\227]@\366\027\213@\032K\025@\220\316\375?T\266[@5\320*@`I\324?\265i\346?}\312\"@\365*`A\037\246\207@\274\372\300?~\003\347?tVB@\rk\273?\277\315]@\222\264\320?\324_\215?\366\027\213@\032K\025@\220\316\375?T\266[@5\320*@`I\324?\265i\346?}\312\"@\365*`A\037\246\207@\274\372\300?~\003\347?tVB@\rk\273?\277\315]@\222\264\320?\324_\215?T\321\367?\232\257L@\235Fu@T\266[@5\320*@`I\324?\265i\346?}\312\"@\365*`A\037\246\207@\274\372\300?~\003\347?tVB@\rk\273?\277\315]@\222\264\320?\324_\215?T\321\367?\232\257L@\235Fu@\314\000>@\247Y\366?\034f/@\265i\346?}\312\"@\365*`A\037\246\207@\274\372\300?~\003\347?tVB@\rk\273?\277\315]@\222\264\320?\324_\215?T\321\367?\232\257L@\235Fu@\314\000>@\247Y\366?\034f/@.\274O@V\233\232@\217)\tA\037\246\207@\274\372\300?~\003\347?tVB@\rk\273?\277\315]@\222\264\320?\324_\215?T\321\367?\232\257L@\235Fu@\314\000>@\247Y\366?\034f/@.\274O@V\233\232@\217)\tA\336\355\326\276\336\355\326\276\336\355\326\276tVB@\rk\273?\277\315]@\222\264\320?\324_\215?T\321\367?\232\257L@\235Fu@\314\000>@\247Y\366?\034f/@.\274O@V\233\232@\217)\tA\336\355\326\276\336\355\326\276\336\355\326\276\246b\220\276\265\355\254\276\335B\260\276\222\264\320?\324_\215?T\321\367?\232\257L@\235Fu@\314\000>@\247Y\366?\034f/@.\274O@V\233\232@\217)\tA\336\355\326\276\336\355\326\276\336\355\326\276\246b\220\276\265\355\254\276\335B\260\276\3469\262\276@\343\273\276\246\216\273\276\232\257L@\235Fu@\314\000>@\247Y\366?\034f/@.\274O@V\233\232@\217)\tA\336\355\326\276\336\355\326\276\336\355\326\276\246b\220\276\265\355\254\276\335B\260\276\3469\262\276@\343\273\276\246\216\273\276\267\353\256\276\325\230\267\276L\327\304\276\247Y\366?\034f/@.\274O@V\233\232@\217)\tA\336\355\326\276\336\355\326\276\336\355\326\276\246b\220\276\265\355\254\276\335B\260\276\3469\262\276@\343\273\276\246\216\273\276\267\353\256\276\325\230\267\276L\327\304\276y\230\304\276\013\002\277\276u\352\271\276V\233\232@\217)\tA\336\355\326\276\336\355\326\276\336\355\326\276\246b\220\276\265\355\254\276\335B\260\276\3469\262\276@\343\273\276\246\216\273\276\267\353\256\276\325\230\267\276L\327\304\276y\230\304\276\013\002\277\276u\352\271\276h\211\277\276`]\275\276h\305\277\276\336\355\326\276\336\355\326\276\246b\220\276\265\355\254\276\335B\260\276\3469\262\276@\343\273\276\246\216\273\276\267\353\256\276\325\230\267\276L\327\304\276y\230\304\276\013\002\277\276u\352\271\276h\211\277\276`]\275\276h\305\277\276\336\302\271\276\037\032\270\276X\033\272\276\265\355\254\276\335B\260\276\3469\262\276@\343\273\276\246\216\273\276\267\353\256\276\325\230\267\276L\327\304\276y\230\304\276\013\002\277\276u\352\271\276h\211\277\276`]\275\276h\305\277\276\336\302\271\276\037\032\270\276X\033\272\276\2076\271\276Z^\306\276C\324\304\276@\343\273\276\246\216\273\276\267\353\256\276\325\230\267\276L\327\304\276y\230\304\276\013\002\277\276u\352\271\276h\211\277\276`]\275\276h\305\277\276\336\302\271\276\037\032\270\276X\033\272\276\2076\271\276Z^\306\276C\324\304\276\357\177\277\276\330\245\263\276RK\273\276\325\230\267\276L\327\304\276y\230\304\276\013\002\277\276u\352\271\276h\211\277\276`]\275\276h\305\277\276\336\302\271\276\037\032\270\276X\033\272\276\2076\271\276Z^\306\276C\324\304\276\357\177\277\276\330\245\263\276RK\273\276r\205\277\276D[\264\276\347@\303\276\013\002\277\276u\352\271\276h\211\277\276`]\275\276h\305\277\276\336\302\271\276\037\032\270\276X\033\272\276\2076\271\276Z^\306\276C\324\304\276\357\177\277\276\330\245\263\276RK\273\276r\205\277\276D[\264\276\347@\303\276#4\302\276Q\334\303\276\021\315\303\276`]\275\276h\305\277\276\336\302\271\276\037\032\270\276X\033\272\276\2076\271\276Z^\306\276C\324\304\276\357\177\277\276\330\245\263\276RK\273\276r\205\277\276D[\264\276\347@\303\276#4\302\276Q\334\303\276\021\315\303\276\026\222\272\276\261A\302\276LW\271\276\037\032\270\276X\033\272\276\2076\271\276Z^\306\276C\324\304\276\357\177\277\276\330\245\263\276RK\273\276r\205\277\276D[\264\276\347@\303\276#4\302\276Q\334\303\276\021\315\303\276\026\222\272\276\261A\302\276LW\271\276\t\'\250\276\372\264\302\276I\243\265\276Z^\306\276C\324\304\276\357\177\277\276\330\245\263\276RK\273\276r\205\277\276D[\264\276\347@\303\276#4\302\276Q\334\303\276\021\315\303\276\026\222\272\276\261A\302\276LW\271\276\t\'\250\276\372\264\302\276I\243\265\276f\241\251\276\232\017\245\276\235\010\263\276\330\245\263\276RK\273\276r\205\277\276D[\264\276\347@\303\276#4\302\276Q\334\303\276\021\315\303\276\026\222\272\276\261A\302\276LW\271\276\t\'\250\276\372\264\302\276I\243\265\276f\241\251\276\232\017\245\276\235\010\263\276\200\034\266\276C\016\270\276\036\244\263\276D[\264\276\347@\303\276#4\302\276Q\334\303\276\021\315\303\276\026\222\272\276\261A\302\276LW\271\276\t\'\250\276\372\264\302\276I\243\265\276f\241\251\276\232\017\245\276\235\010\263\276\200\034\266\276C\016\270\276\036\244\263\276\320\014\300\276\236\255\300\276\014\004\272\276Q\334\303\276\021\315\303\276\026\222\272\276\261A\302\276LW\271\276\t\'\250\276\372\264\302\276I\243\265\276f\241\251\276\232\017\245\276\235\010\263\276\200\034\266\276C\016\270\276\036\244\263\276\320\014\300\276\236\255\300\276\014\004\272\276#I\302\276\323\363\270\276\317^\277\276\261A\302\276LW\271\276\t\'\250\276\372\264\302\276I\243\265\276f\241\251\276\232\017\245\276\235\010\263\276\200\034\266\276C\016\270\276\036\244\263\276\320\014\300\276\236\255\300\276\014\004\272\276#I\302\276\323\363\270\276\317^\277\276C2\263\276\265\355\252\276^\343\252\276\372\264\302\276I\243\265\276f\241\251\276\232\017\245\276\235\010\263\276\200\034\266\276C\016\270\276\036\244\263\276\320\014\300\276\236\255\300\276\014\004\272\276#I\302\276\323\363\270\276\317^\277\276C2\263\276\265\355\252\276^\343\252\276\014C\262\2762H\256\276\334\320\240\276\232\017\245\276\235\010\263\276\200\034\266\276C\016\270\276\036\244\263\276\320\014\300\276\236\255\300\276\014\004\272\276#I\302\276\323\363\270\276\317^\277\276C2\263\276\265\355\252\276^\343\252\276\014C\262\2762H\256\276\334\320\240\276|[\240\276z\303\251\2761\356\224\276C\016\270\276\036\244\263\276\320\014\300\276\236\255\300\276\014\004\272\276#I\302\276\323\363\270\276\317^\277\276C2\263\276\265\355\252\276^\343\252\276\014C\262\2762H\256\276\334\320\240\276|[\240\276z\303\251\2761\356\224\276\203\324\222\276\036\254\226\276Q\311\000\276\236\255\300\276\014\004\272\276#I\302\276\323\363\270\276\317^\277\276C2\263\276\265\355\252\276^\343\252\276\014C\262\2762H\256\276\334\320\240\276|[\240\276z\303\251\2761\356\224\276\203\324\222\276\036\254\226\276Q\311\000\276\267V\272\276K`\273\276C\327\276\276\323\363\270\276\317^\277\276C2\263\276\265\355\252\276^\343\252\276\014C\262\2762H\256\276\334\320\240\276|[\240\276z\303\251\2761\356\224\276\203\324\222\276\036\254\226\276Q\311\000\276\267V\272\276K`\273\276C\327\276\276\204\364\274\276\252\263\300\276\021o\267\276\265\355\252\276^\343\252\276\014C\262\2762H\256\276\334\320\240\276|[\240\276z\303\251\2761\356\224\276\203\324\222\276\036\254\226\276Q\311\000\276\267V\272\276K`\273\276C\327\276\276\204\364\274\276\252\263\300\276\021o\267\276\346\311\271\276\234x\301\276\347^\264\2762H\256\276\334\320\240\276|[\240\276z\303\251\2761\356\224\276\203\324\222\276\036\254\226\276Q\311\000\276\267V\272\276K`\273\276C\327\276\276\204\364\274\276\252\263\300\276\021o\267\276\346\311\271\276\234x\301\276\347^\264\276r4\275\276\257y\247\276\250n\277\276z\303\251\2761\356\224\276\203\324\222\276\036\254\226\276Q\311\000\276\267V\272\276K`\273\276C\327\276\276\204\364\274\276\252\263\300\276\021o\267\276\346\311\271\276\234x\301\276\347^\264\276r4\275\276\257y\247\276\250n\277\276\030v\227\276\022u\234\276\276\267\253\276\036\254\226\276Q\311\000\276\267V\272\276K`\273\276C\327\276\276\204\364\274\276\252\263\300\276\021o\267\276\346\311\271\276\234x\301\276\347^\264\276r4\275\276\257y\247\276\250n\277\276\030v\227\276\022u\234\276\276\267\253\276W\001\255\276\340j\303\276\374\334\300\276K`\273\276C\327\276\276\204\364\274\276\252\263\300\276\021o\267\276\346\311\271\276\234x\301\276\347^\264\276r4\275\276\257y\247\276\250n\277\276\030v\227\276\022u\234\276\276\267\253\276W\001\255\276\340j\303\276\374\334\300\276\264\265\273\276\317\237\277\276\3464\303\276\252\263\300\276\021o\267\276\346\311\271\276\234x\301\276\347^\264\276r4\275\276\257y\247\276\250n\277\276\030v\227\276\022u\234\276\276\267\253\276W\001\255\276\340j\303\276\374\334\300\276\264\265\273\276\317\237\277\276\3464\303\276S\004\302\276\321\354\275\276M\231\261\276\234x\301\276\347^\264\276r4\275\276\257y\247\276\250n\277\276\030v\227\276\022u\234\276\276\267\253\276W\001\255\276\340j\303\276\374\334\300\276\264\265\273\276\317\237\277\276\3464\303\276S\004\302\276\321\354\275\276M\231\261\276\032\335\274\276\343\220\262\276\334w\277\276\257y\247\276\250n\277\276\030v\227\276\022u\234\276\276\267\253\276W\001\255\276\340j\303\276\374\334\300\276\264\265\273\276\317\237\277\276\3464\303\276S\004\302\276\321\354\275\276M\231\261\276\032\335\274\276\343\220\262\276\334w\277\276\000\r\273\276\224\322\305\276k/\264\276\022u\234\276\276\267\253\276W\001\255\276\340j\303\276\374\334\300\276\264\265\273\276\317\237\277\276\3464\303\276S\004\302\276\321\354\275\276M\231\261\276\032\335\274\276\343\220\262\276\334w\277\276\000\r\273\276\224\322\305\276k/\264\276\347\250\247\276<\215\274\276\243\207\302\276\340j\303\276\374\334\300\276\264\265\273\276\317\237\277\276\3464\303\276S\004\302\276\321\354\275\276M\231\261\276\032\335\274\276\343\220\262\276\334w\277\276\000\r\273\276\224\322\305\276k/\264\276\347\250\247\276<\215\274\276\243\207\302\276y\004\304\276\000\247\274\276\370,\275\276\317\237\277\276\3464\303\276S\004\302\276\321\354\275\276M\231\261\276\032\335\274\276\343\220\262\276\334w\277\276\000\r\273\276\224\322\305\276k/\264\276\347\250\247\276<\215\274\276\243\207\302\276y\004\304\276\000\247\274\276\370,\275\276\021\226\275\276\0309\301\276@U\264\276\321\354\275\276M\231\261\276\032\335\274\276\343\220\262\276\334w\277\276\000\r\273\276\224\322\305\276k/\264\276\347\250\247\276<\215\274\276\243\207\302\276y\004\304\276\000\247\274\276\370,\275\276\021\226\275\276\0309\301\276@U\264\276\275\372\270\276\315\365\221\276\374\233\300\276\343\220\262\276\334w\277\276\000\r\273\276\224\322\305\276k/\264\276\347\250\247\276<\215\274\276\243\207\302\276y\004\304\276\000\247\274\276\370,\275\276\021\226\275\276\0309\301\276@U\264\276\275\372\270\276\315\365\221\276\374\233\300\276\350\202\267\276\245\274\254\2761_\314\276\224\322\305\276k/\264\276\347\250\247\276<\215\274\276\243\207\302\276y\004\304\276\000\247\274\276\370,\275\276\021\226\275\276\0309\301\276@U\264\276\275\372\270\276\315\365\221\276\374\233\300\276\350\202\267\276\245\274\254\2761_\314\276wT\310\276}k\304\276e\346\276\276<\215\274\276\243\207\302\276y\004\304\276\000\247\274\276\370,\275\276\021\226\275\276\0309\301\276@U\264\276\275\372\270\276\315\365\221\276\374\233\300\276\350\202\267\276\245\274\254\2761_\314\276wT\310\276}k\304\276e\346\276\276\375\341\300\276\013\363\275\276\207%\305\276\000\247\274\276\370,\275\276\021\226\275\276\0309\301\276@U\264\276\275\372\270\276\315\365\221\276\374\233\300\276\350\202\267\276\245\274\254\2761_\314\276wT\310\276}k\304\276e\346\276\276\375\341\300\276\013\363\275\276\207%\305\276\267h\302\276\032G\307\276\332n\302\276\0309\301\276@U\264\276\275\372\270\276\315\365\221\276\374\233\300\276\350\202\267\276\245\274\254\2761_\314\276wT\310\276}k\304\276e\346\276\276\375\341\300\276\013\363\275\276\207%\305\276\267h\302\276\032G\307\276\332n\302\276\3548\307\276\314\003\273\276\205\031\303\276\315\365\221\276\374\233\300\276\350\202\267\276\245\274\254\2761_\314\276wT\310\276}k\304\276e\346\276\276\375\341\300\276\013\363\275\276\207%\305\276\267h\302\276\032G\307\276\332n\302\276\3548\307\276\314\003\273\276\205\031\303\276z\216\305\276\027\373\301\276\032\316\277\276\245\274\254\2761_\314\276wT\310\276}k\304\276e\346\276\276\375\341\300\276\013\363\275\276\207%\305\276\267h\302\276\032G\307\276\332n\302\276\3548\307\276\314\003\273\276\205\031\303\276z\216\305\276\027\373\301\276\032\316\277\276@\372\275\276\244(\265\276\037\311\267\276}k\304\276e\346\276\276\375\341\300\276\013\363\275\276\207%\305\276\267h\302\276\032G\307\276\332n\302\276\3548\307\276\314\003\273\276\205\031\303\276z\216\305\276\027\373\301\276\032\316\277\276@\372\275\276\244(\265\276\037\311\267\276\227\332\303\276h\271\305\276\374,\300\276\013\363\275\276\207%\305\276\267h\302\276\032G\307\276\332n\302\276\3548\307\276\314\003\273\276\205\031\303\276z\216\305\276\027\373\301\276\032\316\277\276@\372\275\276\244(\265\276\037\311\267\276\227\332\303\276h\271\305\276\374,\300\276\333<\311\276\235j\311\276\"\226\303\276\032G\307\276\332n\302\276\3548\307\276\314\003\273\276\205\031\303\276z\216\305\276\027\373\301\276\032\316\277\276@\372\275\276\244(\265\276\037\311\267\276\227\332\303\276h\271\305\276\374,\300\276\333<\311\276\235j\311\276\"\226\303\276W?\304\276}\277\272\276\336e\277\276\314\003\273\276\205\031\303\276z\216\305\276\027\373\301\276\032\316\277\276@\372\275\276\244(\265\276\037\311\267\276\227\332\303\276h\271\305\276\374,\300\276\333<\311\276\235j\311\276\"\226\303\276W?\304\276}\277\272\276\336e\277\276\272=\276\276\3530\300\276\311\231\271\276\027\373\301\276\032\316\277\276@\372\275\276\244(\265\276\037\311\267\276\227\332\303\276h\271\305\276\374,\300\276\333<\311\276\235j\311\276\"\226\303\276W?\304\276}\277\272\276\336e\277\276\272=\276\276\3530\300\276\311\231\271\276\305\231\266\276\346\'\267\276$,\247\276\244(\265\276\037\311\267\276\227\332\303\276h\271\305\276\374,\300\276\333<\311\276\235j\311\276\"\226\303\276W?\304\276}\277\272\276\336e\277\276\272=\276\276\3530\300\276\311\231\271\276\305\231\266\276\346\'\267\276$,\247\276n\342\270\276\026\361\272\276\000\315\275\276h\271\305\276\374,\300\276\333<\311\276\235j\311\276\"\226\303\276W?\304\276}\277\272\276\336e\277\276\272=\276\276\3530\300\276\311\231\271\276\305\231\266\276\346\'\267\276$,\247\276n\342\270\276\026\361\272\276\000\315\275\276*;\257\276\021G\301\276\342\206\266\276\235j\311\276\"\226\303\276W?\304\276}\277\272\276\336e\277\276\272=\276\276\3530\300\276\311\231\271\276\305\231\266\276\346\'\267\276$,\247\276n\342\270\276\026\361\272\276\000\315\275\276*;\257\276\021G\301\276\342\206\266\276\032[\302\276<M\301\276\374\000\300\276}\277\272\276\336e\277\276\272=\276\276\3530\300\276\311\231\271\276\305\231\266\276\346\'\267\276$,\247\276n\342\270\276\026\361\272\276\000\315\275\276*;\257\276\021G\301\276\342\206\266\276\032[\302\276<M\301\276\374\000\300\276I\033\274\276\247\344\275\276\250\336\265\276\3530\300\276\311\231\271\276\305\231\266\276\346\'\267\276$,\247\276n\342\270\276\026\361\272\276\000\315\275\276*;\257\276\021G\301\276\342\206\266\276\032[\302\276<M\301\276\374\000\300\276I\033\274\276\247\344\275\276\250\336\265\276\364&\301\276\206\356\272\276\224\310\276\276\346\'\267\276$,\247\276n\342\270\276\026\361\272\276\000\315\275\276*;\257\276\021G\301\276\342\206\266\276\032[\302\276<M\301\276\374\000\300\276I\033\274\276\247\344\275\276\250\336\265\276\364&\301\276\206\356\272\276\224\310\276\276\315\223\275\276\230h\300\276\241\304\275\276\026\361\272\276\000\315\275\276*;\257\276\021G\301\276\342\206\266\276\032[\302\276<M\301\276\374\000\300\276I\033\274\276\247\344\275\276\250\336\265\276\364&\301\276\206\356\272\276\224\310\276\276\315\223\275\276\230h\300\276\241\304\275\276f\251\273\276\036q\304\276\207)\276\276\021G\301\276\342\206\266\276\032[\302\276<M\301\276\374\000\300\276I\033\274\276\247\344\275\276\250\336\265\276\364&\301\276\206\356\272\276\224\310\276\276\315\223\275\276\230h\300\276\241\304\275\276f\251\273\276\036q\304\276\207)\276\276\025M\275\276\234q\305\276\256\214\271\276<M\301\276\374\000\300\276I\033\274\276\247\344\275\276\250\336\265\276\364&\301\276\206\356\272\276\224\310\276\276\315\223\275\276\230h\300\276\241\304\275\276f\251\273\276\036q\304\276\207)\276\276\025M\275\276\234q\305\276\256\214\271\276o\276\277\276\362\302\274\276\277\307\302\276\247\344\275\276\250\336\265\276\364&\301\276\206\356\272\276\224\310\276\276\315\223\275\276\230h\300\276\241\304\275\276f\251\273\276\036q\304\276\207)\276\276\025M\275\276\234q\305\276\256\214\271\276o\276\277\276\362\302\274\276\277\307\302\276s\026\301\276\317\277\305\2769\r\313\276\206\356\272\276\224\310\276\276\315\223\275\276\230h\300\276\241\304\275\276f\251\273\276\036q\304\276\207)\276\276\025M\275\276\234q\305\276\256\214\271\276o\276\277\276\362\302\274\276\277\307\302\276s\026\301\276\317\277\305\2769\r\313\276\027\213\276\276|\010\272\276\257\355\243\276\230h\300\276\241\304\275\276f\251\273\276\036q\304\276\207)\276\276\025M\275\276\234q\305\276\256\214\271\276o\276\277\276\362\302\274\276\277\307\302\276s\026\301\276\317\277\305\2769\r\313\276\027\213\276\276|\010\272\276\257\355\243\276\017G\252\276*\314\233\276\260n\241\276\036q\304\276\207)\276\276\025M\275\276\234q\305\276\256\214\271\276o\276\277\276\362\302\274\276\277\307\302\276s\026\301\276\317\277\305\2769\r\313\276\027\213\276\276|\010\272\276\257\355\243\276\017G\252\276*\314\233\276\260n\241\276\275\r\265\276\234[\304\2769!\306\276\234q\305\276\256\214\271\276o\276\277\276\362\302\274\276\277\307\302\276s\026\301\276\317\277\305\2769\r\313\276\027\213\276\276|\010\272\276\257\355\243\276\017G\252\276*\314\233\276\260n\241\276\275\r\265\276\234[\304\2769!\306\276ry\303\276\243\302\262\276\r\324\304\276\362\302\274\276\277\307\302\276s\026\301\276\317\277\305\2769\r\313\276\027\213\276\276|\010\272\276\257\355\243\276\017G\252\276*\314\233\276\260n\241\276\275\r\265\276\234[\304\2769!\306\276ry\303\276\243\302\262\276\r\324\304\276\347w\274\276[^\271\276\302\006\232\276\317\277\305\2769\r\313\276\027\213\276\276|\010\272\276\257\355\243\276\017G\252\276*\314\233\276\260n\241\276\275\r\265\276\234[\304\2769!\306\276ry\303\276\243\302\262\276\r\324\304\276\347w\274\276[^\271\276\302\006\232\276=H\274\276\036\316\274\276\345\304\275\276|\010\272\276\257\355\243\276\017G\252\276*\314\233\276\260n\241\276\275\r\265\276\234[\304\2769!\306\276ry\303\276\243\302\262\276\r\324\304\276\347w\274\276[^\271\276\302\006\232\276=H\274\276\036\316\274\276\345\304\275\276\323g\306\276\351C\303\276pt\303\276*\314\233\276\260n\241\276\275\r\265\276\234[\304\2769!\306\276ry\303\276\243\302\262\276\r\324\304\276\347w\274\276[^\271\276\302\006\232\276=H\274\276\036\316\274\276\345\304\275\276\323g\306\276\351C\303\276pt\303\2767\366\274\276\361p\306\276\345\t\302\276\234[\304\2769!\306\276ry\303\276\243\302\262\276\r\324\304\276\347w\274\276[^\271\276\302\006\232\276=H\274\276\036\316\274\276\345\304\275\276\323g\306\276\351C\303\276pt\303\2767\366\274\276\361p\306\276\345\t\302\276\017\301\303\276\263\234\261\276\001\332\300\276\243\302\262\276\r\324\304\276\347w\274\276[^\271\276\302\006\232\276=H\274\276\036\316\274\276\345\304\275\276\323g\306\276\351C\303\276pt\303\2767\366\274\276\361p\306\276\345\t\302\276\017\301\303\276\263\234\261\276\001\332\300\276\375O\300\276\210\317\275\276\337\000\304\276[^\271\276\302\006\232\276=H\274\276\036\316\274\276\345\304\275\276\323g\306\276\351C\303\276pt\303\2767\366\274\276\361p\306\276\345\t\302\276\017\301\303\276\263\234\261\276\001\332\300\276\375O\300\276\210\317\275\276\337\000\304\276\346\201\275\276d*\276\276\261f\304\276\036\316\274\276\345\304\275\276\323g\306\276\351C\303\276pt\303\2767\366\274\276\361p\306\276\345\t\302\276\017\301\303\276\263\234\261\276\001\332\300\276\375O\300\276\210\317\275\276\337\000\304\276\346\201\275\276d*\276\276\261f\304\276\034\027\307\2765I\273\276\320\230\303\276\351C\303\276pt\303\2767\366\274\276\361p\306\276\345\t\302\276\017\301\303\276\263\234\261\276\001\332\300\276\375O\300\276\210\317\275\276\337\000\304\276\346\201\275\276d*\276\276\261f\304\276\034\027\307\2765I\273\276\320\230\303\276\217\246\300\2762\214\300\276\031\006\303\276\361p\306\276\345\t\302\276\017\301\303\276\263\234\261\276\001\332\300\276\375O\300\276\210\317\275\276\337\000\304\276\346\201\275\276d*\276\276\261f\304\276\034\027\307\2765I\273\276\320\230\303\276\217\246\300\2762\214\300\276\031\006\303\276\302\310\300\276|D\274\276\215\267\277\276\263\234\261\276\001\332\300\276\375O\300\276\210\317\275\276\337\000\304\276\346\201\275\276d*\276\276\261f\304\276\034\027\307\2765I\273\276\320\230\303\276\217\246\300\2762\214\300\276\031\006\303\276\302\310\300\276|D\274\276\215\267\277\276\t\352\263\276\375\236\274\276\336l\256\276\210\317\275\276\337\000\304\276\346\201\275\276d*\276\276\261f\304\276\034\027\307\2765I\273\276\320\230\303\276\217\246\300\2762\214\300\276\031\006\303\276\302\310\300\276|D\274\276\215\267\277\276\t\352\263\276\375\236\274\276\336l\256\2767t\300\276\210D\277\276$\333\302\276d*\276\276\261f\304\276\034\027\307\2765I\273\276\320\230\303\276\217\246\300\2762\214\300\276\031\006\303\276\302\310\300\276|D\274\276\215\267\277\276\t\352\263\276\375\236\274\276\336l\256\2767t\300\276\210D\277\276$\333\302\276Ho\275\276k\237\273\276Oe\266\2765I\273\276\320\230\303\276\217\246\300\2762\214\300\276\031\006\303\276\302\310\300\276|D\274\276\215\267\277\276\t\352\263\276\375\236\274\276\336l\256\2767t\300\276\210D\277\276$\333\302\276Ho\275\276k\237\273\276Oe\266\276\337\371\266\276\">\305\276\r\335\271\2762\214\300\276\031\006\303\276\302\310\300\276|D\274\276\215\267\277\276\t\352\263\276\375\236\274\276\336l\256\2767t\300\276\210D\277\276$\333\302\276Ho\275\276k\237\273\276Oe\266\276\337\371\266\276\">\305\276\r\335\271\276\270:\300\276\313z\253\276\351\375\271\276|D\274\276\215\267\277\276\t\352\263\276\375\236\274\276\336l\256\2767t\300\276\210D\277\276$\333\302\276Ho\275\276k\237\273\276Oe\266\276\337\371\266\276\">\305\276\r\335\271\276\270:\300\276\313z\253\276\351\375\271\276\325\226\302\276\326>\267\276\302\221\270\276\375\236\274\276\336l\256\2767t\300\276\210D\277\276$\333\302\276Ho\275\276k\237\273\276Oe\266\276\337\371\266\276\">\305\276\r\335\271\276\270:\300\276\313z\253\276\351\375\271\276\325\226\302\276\326>\267\276\302\221\270\276\r\275\302\276\222\226\271\276\321\335\255\276\210D\277\276$\333\302\276Ho\275\276k\237\273\276Oe\266\276\337\371\266\276\">\305\276\r\335\271\276\270:\300\276\313z\253\276\351\375\271\276\325\226\302\276\326>\267\276\302\221\270\276\r\275\302\276\222\226\271\276\321\335\255\276\243>\262\276\204\364\274\276_\246\305\276k\237\273\276Oe\266\276\337\371\266\276\">\305\276\r\335\271\276\270:\300\276\313z\253\276\351\375\271\276\325\226\302\276\326>\267\276\302\221\270\276\r\275\302\276\222\226\271\276\321\335\255\276\243>\262\276\204\364\274\276_\246\305\276\225p\302\276\237N\304\276\261\377\300\276\">\305\276\r\335\271\276\270:\300\276\313z\253\276\351\375\271\276\325\226\302\276\326>\267\276\302\221\270\276\r\275\302\276\222\226\271\276\321\335\255\276\243>\262\276\204\364\274\276_\246\305\276\225p\302\276\237N\304\276\261\377\300\276\177h\245\276\227q\240\276\216Z\251\276\313z\253\276\351\375\271\276\325\226\302\276\326>\267\276\302\221\270\276\r\275\302\276\222\226\271\276\321\335\255\276\243>\262\276\204\364\274\276_\246\305\276\225p\302\276\237N\304\276\261\377\300\276\177h\245\276\227q\240\276\216Z\251\276I\021\267\276\364/\266\276\262!\242\276\326>\267\276\302\221\270\276\r\275\302\276\222\226\271\276\321\335\255\276\243>\262\276\204\364\274\276_\246\305\276\225p\302\276\237N\304\276\261\377\300\276\177h\245\276\227q\240\276\216Z\251\276I\021\267\276\364/\266\276\262!\242\2768S\241\276\033\177\264\276#\003\252\276\222\226\271\276\321\335\255\276\243>\262\276\204\364\274\276_\246\305\276\225p\302\276\237N\304\276\261\377\300\276\177h\245\276\227q\240\276\216Z\251\276I\021\267\276\364/\266\276\262!\242\2768S\241\276\033\177\264\276#\003\252\276\206\001\302\276\030\267\263\276Z\265\245\276\204\364\274\276_\246\305\276\225p\302\276\237N\304\276\261\377\300\276\177h\245\276\227q\240\276\216Z\251\276I\021\267\276\364/\266\276\262!\242\2768S\241\276\033\177\264\276#\003\252\276\206\001\302\276\030\267\263\276Z\265\245\276\204\215\273\276H\366\306\276\364\304\312\276\237N\304\276\261\377\300\276\177h\245\276\227q\240\276\216Z\251\276I\021\267\276\364/\266\276\262!\242\2768S\241\276\033\177\264\276#\003\252\276\206\001\302\276\030\267\263\276Z\265\245\276\204\215\273\276H\366\306\276\364\304\312\276\0307\312\276Y\343\301\276\254\253\303\276\227q\240\276\216Z\251\276I\021\267\276\364/\266\276\262!\242\2768S\241\276\033\177\264\276#\003\252\276\206\001\302\276\030\267\263\276Z\265\245\276\204\215\273\276H\366\306\276\364\304\312\276\0307\312\276Y\343\301\276\254\253\303\276><\306\276\nO\306\276W\233\277\276\364/\266\276\262!\242\2768S\241\276\033\177\264\276#\003\252\276\206\001\302\276\030\267\263\276Z\265\245\276\204\215\273\276H\366\306\276\364\304\312\276\0307\312\276Y\343\301\276\254\253\303\276><\306\276\nO\306\276W\233\277\276|d\300\276\371\006\276\276\006h\272\276\033\177\264\276#\003\252\276\206\001\302\276\030\267\263\276Z\265\245\276\204\215\273\276H\366\306\276\364\304\312\276\0307\312\276Y\343\301\276\254\253\303\276><\306\276\nO\306\276W\233\277\276|d\300\276\371\006\276\276\006h\272\276r\242\300\276\306}\276\276\352\325\303\276\030\267\263\276Z\265\245\276\204\215\273\276H\366\306\276\364\304\312\276\0307\312\276Y\343\301\276\254\253\303\276><\306\276\nO\306\276W\233\277\276|d\300\276\371\006\276\276\006h\272\276r\242\300\276\306}\276\276\352\325\303\276Kp\277\276\235\316\303\276h\226\272\276H\366\306\276\364\304\312\276\0307\312\276Y\343\301\276\254\253\303\276><\306\276\nO\306\276W\233\277\276|d\300\276\371\006\276\276\006h\272\276r\242\300\276\306}\276\276\352\325\303\276Kp\277\276\235\316\303\276h\226\272\276\301\036\271\276A\030\263\276}\262\260\276Y\343\301\276\254\253\303\276><\306\276\nO\306\276W\233\277\276|d\300\276\371\006\276\276\006h\272\276r\242\300\276\306}\276\276\352\325\303\276Kp\277\276\235\316\303\276h\226\272\276\301\036\271\276A\030\263\276}\262\260\276{\325\265\276\337\022\277\276f\231\271\276\nO\306\276W\233\277\276|d\300\276\371\006\276\276\006h\272\276r\242\300\276\306}\276\276\352\325\303\276Kp\277\276\235\316\303\276h\226\272\276\301\036\271\276A\030\263\276}\262\260\276{\325\265\276\337\022\277\276f\231\271\276\257\317\277\276j\235\300\276c\222\274\276\371\006\276\276\006h\272\276r\242\300\276\306}\276\276\352\325\303\276Kp\277\276\235\316\303\276h\226\272\276\301\036\271\276A\030\263\276}\262\260\276{\325\265\276\337\022\277\276f\231\271\276\257\317\277\276j\235\300\276c\222\274\276\224\246\305\276! \277\276\334z\265\276\306}\276\276\352\325\303\276Kp\277\276\235\316\303\276h\226\272\276\301\036\271\276A\030\263\276}\262\260\276{\325\265\276\337\022\277\276f\231\271\276\257\317\277\276j\235\300\276c\222\274\276\224\246\305\276! \277\276\334z\265\276F\254\272\276:^\276\276Tt\272\276\235\316\303\276h\226\272\276\301\036\271\276A\030\263\276}\262\260\276{\325\265\276\337\022\277\276f\231\271\276\257\317\277\276j\235\300\276c\222\274\276\224\246\305\276! \277\276\334z\265\276F\254\272\276:^\276\276Tt\272\276\001Z\271\2765y\245\276\000\320\263\276A\030\263\276}\262\260\276{\325\265\276\337\022\277\276f\231\271\276\257\317\277\276j\235\300\276c\222\274\276\224\246\305\276! \277\276\334z\265\276F\254\272\276:^\276\276Tt\272\276\001Z\271\2765y\245\276\000\320\263\276\223\347\301\276\312J\301\276c&\277\276\337\022\277\276f\231\271\276\257\317\277\276j\235\300\276c\222\274\276\224\246\305\276! \277\276\334z\265\276F\254\272\276:^\276\276Tt\272\276\001Z\271\2765y\245\276\000\320\263\276\223\347\301\276\312J\301\276c&\277\276\r\016\303\276\250X\276\276\321\201\305\276j\235\300\276c\222\274\276\224\246\305\276! \277\276\334z\265\276F\254\272\276:^\276\276Tt\272\276\001Z\271\2765y\245\276\000\320\263\276\223\347\301\276\312J\301\276c&\277\276\r\016\303\276\250X\276\276\321\201\305\276\366#\263\276\376 \277\276\206\346\265\276! \277\276\334z\265\276F\254\272\276:^\276\276Tt\272\276\001Z\271\2765y\245\276\000\320\263\276\223\347\301\276\312J\301\276c&\277\276\r\016\303\276\250X\276\276\321\201\305\276\366#\263\276\376 \277\276\206\346\265\276{b\270\276@\027\275\276\260G\275\276:^\276\276Tt\272\276\001Z\271\2765y\245\276\000\320\263\276\223\347\301\276\312J\301\276c&\277\276\r\016\303\276\250X\276\276\321\201\305\276\366#\263\276\376 \277\276\206\346\265\276{b\270\276@\027\275\276\260G\275\276\340\016\267\276\335%\257\276\276?\266\2765y\245\276\000\320\263\276\223\347\301\276\312J\301\276c&\277\276\r\016\303\276\250X\276\276\321\201\305\276\366#\263\276\376 \277\276\206\346\265\276{b\270\276@\027\275\276\260G\275\276\340\016\267\276\335%\257\276\276?\266\276\246N\302\276\252\301\276\276d\363\263\276\312J\301\276c&\277\276\r\016\303\276\250X\276\276\321\201\305\276\366#\263\276\376 \277\276\206\346\265\276{b\270\276@\027\275\276\260G\275\276\340\016\267\276\335%\257\276\276?\266\276\246N\302\276\252\301\276\276d\363\263\276\n\377\265\276\027\016\255\276\014\205\263\276\250X\276\276\321\201\305\276\366#\263\276\376 \277\276\206\346\265\276{b\270\276@\027\275\276\260G\275\276\340\016\267\276\335%\257\276\276?\266\276\246N\302\276\252\301\276\276d\363\263\276\n\377\265\276\027\016\255\276\014\205\263\276\366\251\267\276\0027\275\276\236l\302\276\376 \277\276\206\346\265\276{b\270\276@\027\275\276\260G\275\276\340\016\267\276\335%\257\276\276?\266\276\246N\302\276\252\301\276\276d\363\263\276\n\377\265\276\027\016\255\276\014\205\263\276\366\251\267\276\0027\275\276\236l\302\276n\215\301\276\023\002\301\276\344E\302\276@\027\275\276\260G\275\276\340\016\267\276\335%\257\276\276?\266\276\246N\302\276\252\301\276\276d\363\263\276\n\377\265\276\027\016\255\276\014\205\263\276\366\251\267\276\0027\275\276\236l\302\276n\215\301\276\023\002\301\276\344E\302\276\253\365\303\276\266D\260\276/\314\261\276\335%\257\276\276?\266\276\246N\302\276\252\301\276\276d\363\263\276\n\377\265\276\027\016\255\276\014\205\263\276\366\251\267\276\0027\275\276\236l\302\276n\215\301\276\023\002\301\276\344E\302\276\253\365\303\276\266D\260\276/\314\261\276_\305\273\276p\365\272\2762\300\301\276\252\301\276\276d\363\263\276\n\377\265\276\027\016\255\276\014\205\263\276\366\251\267\276\0027\275\276\236l\302\276n\215\301\276\023\002\301\276\344E\302\276\253\365\303\276\266D\260\276/\314\261\276_\305\273\276p\365\272\2762\300\301\276T8\270\276\226B\302\276rg\275\276\027\016\255\276\014\205\263\276\366\251\267\276\0027\275\276\236l\302\276n\215\301\276\023\002\301\276\344E\302\276\253\365\303\276\266D\260\276/\314\261\276_\305\273\276p\365\272\2762\300\301\276T8\270\276\226B\302\276rg\275\276J`\304\276+\316\305\276\010\033\314\276\0027\275\276\236l\302\276n\215\301\276\023\002\301\276\344E\302\276\253\365\303\276\266D\260\276/\314\261\276_\305\273\276p\365\272\2762\300\301\276T8\270\276\226B\302\276rg\275\276J`\304\276+\316\305\276\010\033\314\276\216o\305\276\032l\307\276V\031\314\276\023\002\301\276\344E\302\276\253\365\303\276\266D\260\276/\314\261\276_\305\273\276p\365\272\2762\300\301\276T8\270\276\226B\302\276rg\275\276J`\304\276+\316\305\276\010\033\314\276\216o\305\276\032l\307\276V\031\314\276\366\263\313\276\364\207\303\276\312#\310\276\266D\260\276/\314\261\276_\305\273\276p\365\272\2762\300\301\276T8\270\276\226B\302\276rg\275\276J`\304\276+\316\305\276\010\033\314\276\216o\305\276\032l\307\276V\031\314\276\366\263\313\276\364\207\303\276\312#\310\276\036\256\307\276\2704\305\2766G\312\276p\365\272\2762\300\301\276T8\270\276\226B\302\276rg\275\276J`\304\276+\316\305\276\010\033\314\276\216o\305\276\032l\307\276V\031\314\276\366\263\313\276\364\207\303\276\312#\310\276\036\256\307\276\2704\305\2766G\312\276\222\226\273\276\372}\311\276\034\224\305\276\226B\302\276rg\275\276J`\304\276+\316\305\276\010\033\314\276\216o\305\276\032l\307\276V\031\314\276\366\263\313\276\364\207\303\276\312#\310\276\036\256\307\276\2704\305\2766G\312\276\222\226\273\276\372}\311\276\034\224\305\276A\274\273\276\037]\274\276\037#\276\276+\316\305\276\010\033\314\276\216o\305\276\032l\307\276V\031\314\276\366\263\313\276\364\207\303\276\312#\310\276\036\256\307\276\2704\305\2766G\312\276\222\226\273\276\372}\311\276\034\224\305\276A\274\273\276\037]\274\276\037#\276\276u\235\260\276\000\224\300\276\223W\266\276\032l\307\276V\031\314\276\366\263\313\276\364\207\303\276\312#\310\276\036\256\307\276\2704\305\2766G\312\276\222\226\273\276\372}\311\276\034\224\305\276A\274\273\276\037]\274\276\037#\276\276u\235\260\276\000\224\300\276\223W\266\276\273.\303\276\2172\263\276\342\305\262\276\364\207\303\276\312#\310\276\036\256\307\276\2704\305\2766G\312\276\222\226\273\276\372}\311\276\034\224\305\276A\274\273\276\037]\274\276\037#\276\276u\235\260\276\000\224\300\276\223W\266\276\273.\303\276\2172\263\276\342\305\262\276\216\204\224\276\001\331\254\276A\375\267\276\2704\305\2766G\312\276\222\226\273\276\372}\311\276\034\224\305\276A\274\273\276\037]\274\276\037#\276\276u\235\260\276\000\224\300\276\223W\266\276\273.\303\276\2172\263\276\342\305\262\276\216\204\224\276\001\331\254\276A\375\267\276\025R\310\276%\340\304\276\346q\271\276\372}\311\276\034\224\305\276A\274\273\276\037]\274\276\037#\276\276u\235\260\276\000\224\300\276\223W\266\276\273.\303\276\2172\263\276\342\305\262\276\216\204\224\276\001\331\254\276A\375\267\276\025R\310\276%\340\304\276\346q\271\276&<\300\276\030\344\303\276$\351\300\276\037]\274\276\037#\276\276u\235\260\276\000\224\300\276\223W\266\276\273.\303\276\2172\263\276\342\305\262\276\216\204\224\276\001\331\254\276A\375\267\276\025R\310\276%\340\304\276\346q\271\276&<\300\276\030\344\303\276$\351\300\276\225\234\304\276\323\364\267\276\323\037\267\276\000\224\300\276\223W\266\276\273.\303\276\2172\263\276\342\305\262\276\216\204\224\276\001\331\254\276A\375\267\276\025R\310\276%\340\304\276\346q\271\276&<\300\276\030\344\303\276$\351\300\276\225\234\304\276\323\364\267\276\323\037\267\276m\265\263\276\257\r\271\276.z\273\276\2172\263\276\342\305\262\276\216\204\224\276\001\331\254\276A\375\267\276\025R\310\276%\340\304\276\346q\271\276&<\300\276\030\344\303\276$\351\300\276\225\234\304\276\323\364\267\276\323\037\267\276m\265\263\276\257\r\271\276.z\273\276\216m\262\276%R\312\276\345\030\305\276\001\331\254\276A\375\267\276\025R\310\276%\340\304\276\346q\271\276&<\300\276\030\344\303\276$\351\300\276\225\234\304\276\323\364\267\276\323\037\267\276m\265\263\276\257\r\271\276.z\273\276\216m\262\276%R\312\276\345\030\305\276be\306\276.\334\276\276\270l\277\276%\340\304\276\346q\271\276&<\300\276\030\344\303\276$\351\300\276\225\234\304\276\323\364\267\276\323\037\267\276m\265\263\276\257\r\271\276.z\273\276\216m\262\276%R\312\276\345\030\305\276be\306\276.\334\276\276\270l\277\276\337\330\276\2766\330\272\276;(\277\276\030\344\303\276$\351\300\276\225\234\304\276\323\364\267\276\323\037\267\276m\265\263\276\257\r\271\276.z\273\276\216m\262\276%R\312\276\345\030\305\276be\306\276.\334\276\276\270l\277\276\337\330\276\2766\330\272\276;(\277\276\360\022\266\276\262i\276\276\241\367\277\276\323\364\267\276\323\037\267\276m\265\263\276\257\r\271\276.z\273\276\216m\262\276%R\312\276\345\030\305\276be\306\276.\334\276\276\270l\277\276\337\330\276\2766\330\272\276;(\277\276\360\022\266\276\262i\276\276\241\367\277\276\347N\301\276\\\213\276\276\370\342\276\276\257\r\271\276.z\273\276\216m\262\276%R\312\276\345\030\305\276be\306\276.\334\276\276\270l\277\276\337\330\276\2766\330\272\276;(\277\276\360\022\266\276\262i\276\276\241\367\277\276\347N\301\276\\\213\276\276\370\342\276\276\374\373\262\276\304\302\276\276m,\271\276%R\312\276\345\030\305\276be\306\276.\334\276\276\270l\277\276\337\330\276\2766\330\272\276;(\277\276\360\022\266\276\262i\276\276\241\367\277\276\347N\301\276\\\213\276\276\370\342\276\276\374\373\262\276\304\302\276\276m,\271\276\362\371\265\276\360\n\244\276\266\351w\276.\334\276\276\270l\277\276\337\330\276\2766\330\272\276;(\277\276\360\022\266\276\262i\276\276\241\367\277\276\347N\301\276\\\213\276\276\370\342\276\276\374\373\262\276\304\302\276\276m,\271\276\362\371\265\276\360\n\244\276\266\351w\276\326\375z\276\025\020\234\276\352L\232\2766\330\272\276;(\277\276\360\022\266\276\262i\276\276\241\367\277\276\347N\301\276\\\213\276\276\370\342\276\276\374\373\262\276\304\302\276\276m,\271\276\362\371\265\276\360\n\244\276\266\351w\276\326\375z\276\025\020\234\276\352L\232\276\025#\222\276\365\347\271\276\320\214\270\276\262i\276\276\241\367\277\276\347N\301\276\\\213\276\276\370\342\276\276\374\373\262\276\304\302\276\276m,\271\276\362\371\265\276\360\n\244\276\266\351w\276\326\375z\276\025\020\234\276\352L\232\276\025#\222\276\365\347\271\276\320\214\270\276\242\215\273\2761g\274\276\225\252\302\276\\\213\276\276\370\342\276\276\374\373\262\276\304\302\276\276m,\271\276\362\371\265\276\360\n\244\276\266\351w\276\326\375z\276\025\020\234\276\352L\232\276\025#\222\276\365\347\271\276\320\214\270\276\242\215\273\2761g\274\276\225\252\302\276\205\n\300\276\371\037\265\276\351V\254\276\304\302\276\276m,\271\276\362\371\265\276\360\n\244\276\266\351w\276\326\375z\276\025\020\234\276\352L\232\276\025#\222\276\365\347\271\276\320\214\270\276\242\215\273\2761g\274\276\225\252\302\276\205\n\300\276\371\037\265\276\351V\254\276\343S\274\276\217x\276\276n\333\270\276\360\n\244\276\266\351w\276\326\375z\276\025\020\234\276\352L\232\276\025#\222\276\365\347\271\276\320\214\270\276\242\215\273\2761g\274\276\225\252\302\276\205\n\300\276\371\037\265\276\351V\254\276\343S\274\276\217x\276\276n\333\270\276\017\307\242\276Lg\235\276\204A\231\276\025\020\234\276\352L\232\276\025#\222\276\365\347\271\276\320\214\270\276\242\215\273\2761g\274\276\225\252\302\276\205\n\300\276\371\037\265\276\351V\254\276\343S\274\276\217x\276\276n\333\270\276\017\307\242\276Lg\235\276\204A\231\276~\022\270\276\n\326\272\276\010\233\300\276\365\347\271\276\320\214\270\276\242\215\273\2761g\274\276\225\252\302\276\205\n\300\276\371\037\265\276\351V\254\276\343S\274\276\217x\276\276n\333\270\276\017\307\242\276Lg\235\276\204A\231\276~\022\270\276\n\326\272\276\010\233\300\276\360\031\305\276\312j\303\276L\364\303\2761g\274\276\225\252\302\276\205\n\300\276\371\037\265\276\351V\254\276\343S\274\276\217x\276\276n\333\270\276\017\307\242\276Lg\235\276\204A\231\276~\022\270\276\n\326\272\276\010\233\300\276\360\031\305\276\312j\303\276L\364\303\276\2532\253\276\301$\247\276\020\251\304\276\371\037\265\276\351V\254\276\343S\274\276\217x\276\276n\333\270\276\017\307\242\276Lg\235\276\204A\231\276~\022\270\276\n\326\272\276\010\233\300\276\360\031\305\276\312j\303\276L\364\303\276\2532\253\276\301$\247\276\020\251\304\276\345\'\302\276\262\335\272\276\031\361\265\276\217x\276\276n\333\270\276\017\307\242\276Lg\235\276\204A\231\276~\022\270\276\n\326\272\276\010\233\300\276\360\031\305\276\312j\303\276L\364\303\276\2532\253\276\301$\247\276\020\251\304\276\345\'\302\276\262\335\272\276\031\361\265\276\250\325\261\276\354\016\274\276\200\223\271\276Lg\235\276\204A\231\276~\022\270\276\n\326\272\276\010\233\300\276\360\031\305\276\312j\303\276L\364\303\276\2532\253\276\301$\247\276\020\251\304\276\345\'\302\276\262\335\272\276\031\361\265\276\250\325\261\276\354\016\274\276\200\223\271\276V\321\257\276\226F\254\276C\231\305\276\n\326\272\276\010\233\300\276\360\031\305\276\312j\303\276L\364\303\276\2532\253\276\301$\247\276\020\251\304\276\345\'\302\276\262\335\272\276\031\361\265\276\250\325\261\276\354\016\274\276\200\223\271\276V\321\257\276\226F\254\276C\231\305\276\210\261\275\276\360\214\276\276\357i\276\276\312j\303\276L\364\303\276\2532\253\276\301$\247\276\020\251\304\276\345\'\302\276\262\335\272\276\031\361\265\276\250\325\261\276\354\016\274\276\200\223\271\276V\321\257\276\226F\254\276C\231\305\276\210\261\275\276\360\214\276\276\357i\276\276x5\272\276\325\355\301\276}\t\275\276\301$\247\276\020\251\304\276\345\'\302\276\262\335\272\276\031\361\265\276\250\325\261\276\354\016\274\276\200\223\271\276V\321\257\276\226F\254\276C\231\305\276\210\261\275\276\360\214\276\276\357i\276\276x5\272\276\325\355\301\276}\t\275\276\306\273\306\276T\235\306\276pv\305\276\262\335\272\276\031\361\265\276\250\325\261\276\354\016\274\276\200\223\271\276V\321\257\276\226F\254\276C\231\305\276\210\261\275\276\360\214\276\276\357i\276\276x5\272\276\325\355\301\276}\t\275\276\306\273\306\276T\235\306\276pv\305\276M\223\303\276\372 \274\276m\r\264\276\354\016\274\276\200\223\271\276V\321\257\276\226F\254\276C\231\305\276\210\261\275\276\360\214\276\276\357i\276\276x5\272\276\325\355\301\276}\t\275\276\306\273\306\276T\235\306\276pv\305\276M\223\303\276\372 \274\276m\r\264\276\215\317\300\276o/\310\276\036\033\306\276\226F\254\276C\231\305\276\210\261\275\276\360\214\276\276\357i\276\276x5\272\276\325\355\301\276}\t\275\276\306\273\306\276T\235\306\276pv\305\276M\223\303\276\372 \274\276m\r\264\276\215\317\300\276o/\310\276\036\033\306\276\325\356\304\276\323\362\302\276\354\n\303\276\360\214\276\276\357i\276\276x5\272\276\325\355\301\276}\t\275\276\306\273\306\276T\235\306\276pv\305\276M\223\303\276\372 \274\276m\r\264\276\215\317\300\276o/\310\276\036\033\306\276\325\356\304\276\323\362\302\276\354\n\303\276\235\326\304\276\004_\277\276\035\002\274\276\325\355\301\276}\t\275\276\306\273\306\276T\235\306\276pv\305\276M\223\303\276\372 \274\276m\r\264\276\215\317\300\276o/\310\276\036\033\306\276\325\356\304\276\323\362\302\276\354\n\303\276\235\326\304\276\004_\277\276\035\002\274\276\307\340\273\276\350\377\271\276\364\241\277\276T\235\306\276pv\305\276M\223\303\276\372 \274\276m\r\264\276\215\317\300\276o/\310\276\036\033\306\276\325\356\304\276\323\362\302\276\354\n\303\276\235\326\304\276\004_\277\276\035\002\274\276\307\340\273\276\350\377\271\276\364\241\277\276VE\275\276\3166\266\276\247\203\267\276\372 \274\276m\r\264\276\215\317\300\276o/\310\276\036\033\306\276\325\356\304\276\323\362\302\276\354\n\303\276\235\326\304\276\004_\277\276\035\002\274\276\307\340\273\276\350\377\271\276\364\241\277\276VE\275\276\3166\266\276\247\203\267\276\003-\274\276\263\362\257\276\264\234\304\276o/\310\276\036\033\306\276\325\356\304\276\323\362\302\276\354\n\303\276\235\326\304\276\004_\277\276\035\002\274\276\307\340\273\276\350\377\271\276\364\241\277\276VE\275\276\3166\266\276\247\203\267\276\003-\274\276\263\362\257\276\264\234\304\276oR\304\276$n\265\276@\034\267\276\323\362\302\276\354\n\303\276\235\326\304\276\004_\277\276\035\002\274\276\307\340\273\276\350\377\271\276\364\241\277\276VE\275\276\3166\266\276\247\203\267\276\003-\274\276\263\362\257\276\264\234\304\276oR\304\276$n\265\276@\034\267\276\326m\276\276\200\373\275\276-`\273\276\004_\277\276\035\002\274\276\307\340\273\276\350\377\271\276\364\241\277\276VE\275\276\3166\266\276\247\203\267\276\003-\274\276\263\362\257\276\264\234\304\276oR\304\276$n\265\276@\034\267\276\326m\276\276\200\373\275\276-`\273\276\231\030\247\276Y\273\274\276}\032\302\276\350\377\271\276\364\241\277\276VE\275\276\3166\266\276\247\203\267\276\003-\274\276\263\362\257\276\264\234\304\276oR\304\276$n\265\276@\034\267\276\326m\276\276\200\373\275\276-`\273\276\231\030\247\276Y\273\274\276}\032\302\276\234\233\277\276\"y\267\276\375\266\260\276\3166\266\276\247\203\267\276\003-\274\276\263\362\257\276\264\234\304\276oR\304\276$n\265\276@\034\267\276\326m\276\276\200\373\275\276-`\273\276\231\030\247\276Y\273\274\276}\032\302\276\234\233\277\276\"y\267\276\375\266\260\276T\346\264\276\225=\263\276\221]\272\276\263\362\257\276\264\234\304\276oR\304\276$n\265\276@\034\267\276\326m\276\276\200\373\275\276-`\273\276\231\030\247\276Y\273\274\276}\032\302\276\234\233\277\276\"y\267\276\375\266\260\276T\346\264\276\225=\263\276\221]\272\276\351p\263\276@8\265\276\317\364\232\276$n\265\276@\034\267\276\326m\276\276\200\373\275\276-`\273\276\231\030\247\276Y\273\274\276}\032\302\276\234\233\277\276\"y\267\276\375\266\260\276T\346\264\276\225=\263\276\221]\272\276\351p\263\276@8\265\276\317\364\232\276\372\'\253\276\276\021\241\276\3155\257\276\200\373\275\276-`\273\276\231\030\247\276Y\273\274\276}\032\302\276\234\233\277\276\"y\267\276\375\266\260\276T\346\264\276\225=\263\276\221]\272\276\351p\263\276@8\265\276\317\364\232\276\372\'\253\276\276\021\241\276\3155\257\276\247\205\237\276\':\240\276\216\317\n\276Y\273\274\276}\032\302\276\234\233\277\276\"y\267\276\375\266\260\276T\346\264\276\225=\263\276\221]\272\276\351p\263\276@8\265\276\317\364\232\276\372\'\253\276\276\021\241\276\3155\257\276\247\205\237\276\':\240\276\216\317\n\276\370\353\276\276\330\360\266\276\316z\271\276\"y\267\276\375\266\260\276T\346\264\276\225=\263\276\221]\272\276\351p\263\276@8\265\276\317\364\232\276\372\'\253\276\276\021\241\276\3155\257\276\247\205\237\276\':\240\276\216\317\n\276\370\353\276\276\330\360\266\276\316z\271\276\006R\273\276\353\244\276\276f\014\304\276\225=\263\276\221]\272\276\351p\263\276@8\265\276\317\364\232\276\372\'\253\276\276\021\241\276\3155\257\276\247\205\237\276\':\240\276\216\317\n\276\370\353\276\276\330\360\266\276\316z\271\276\006R\273\276\353\244\276\276f\014\304\276\366f\304\276o\240\277\276\233\226\301\276@8\265\276\317\364\232\276\372\'\253\276\276\021\241\276\3155\257\276\247\205\237\276\':\240\276\216\317\n\276\370\353\276\276\330\360\266\276\316z\271\276\006R\273\276\353\244\276\276f\014\304\276\366f\304\276o\240\277\276\233\226\301\276L\216\301\276\374\246\273\276\202V\272\276\276\021\241\276\3155\257\276\247\205\237\276\':\240\276\216\317\n\276\370\353\276\276\330\360\266\276\316z\271\276\006R\273\276\353\244\276\276f\014\304\276\366f\304\276o\240\277\276\233\226\301\276L\216\301\276\374\246\273\276\202V\272\276\3104\305\276R^\302\276\023\002\303\276\':\240\276\216\317\n\276\370\353\276\276\330\360\266\276\316z\271\276\006R\273\276\353\244\276\276f\014\304\276\366f\304\276o\240\277\276\233\226\301\276L\216\301\276\374\246\273\276\202V\272\276\3104\305\276R^\302\276\023\002\303\276\274\204\262\276\363\265\264\276\022\211\304\276\330\360\266\276\316z\271\276\006R\273\276\353\244\276\276f\014\304\276\366f\304\276o\240\277\276\233\226\301\276L\216\301\276\374\246\273\276\202V\272\276\3104\305\276R^\302\276\023\002\303\276\274\204\262\276\363\265\264\276\022\211\304\276\320\222\306\276\305\031\261\276R\323\264\276\353\244\276\276f\014\304\276\366f\304\276o\240\277\276\233\226\301\276L\216\301\276\374\246\273\276\202V\272\276\3104\305\276R^\302\276\023\002\303\276\274\204\262\276\363\265\264\276\022\211\304\276\320\222\306\276\305\031\261\276R\323\264\276S\236\303\276\340\201\303\276v:\314\276o\240\277\276\233\226\301\276L\216\301\276\374\246\273\276\202V\272\276\3104\305\276R^\302\276\023\002\303\276\274\204\262\276\363\265\264\276\022\211\304\276\320\222\306\276\305\031\261\276R\323\264\276S\236\303\276\340\201\303\276v:\314\276\023\221\311\276\250\013\306\276\317\352\302\276\374\246\273\276\202V\272\276\3104\305\276R^\302\276\023\002\303\276\274\204\262\276\363\265\264\276\022\211\304\276\320\222\306\276\305\031\261\276R\323\264\276S\236\303\276\340\201\303\276v:\314\276\023\221\311\276\250\013\306\276\317\352\302\276G\025\306\276\236\372\307\276\223\010\307\276R^\302\276\023\002\303\276\274\204\262\276\363\265\264\276\022\211\304\276\320\222\306\276\305\031\261\276R\323\264\276S\236\303\276\340\201\303\276v:\314\276\023\221\311\276\250\013\306\276\317\352\302\276G\025\306\276\236\372\307\276\223\010\307\276t\350\257\276dT\307\276j\342\310\276\363\265\264\276\022\211\304\276\320\222\306\276\305\031\261\276R\323\264\276S\236\303\276\340\201\303\276v:\314\276\023\221\311\276\250\013\306\276\317\352\302\276G\025\306\276\236\372\307\276\223\010\307\276t\350\257\276dT\307\276j\342\310\276\264\236\271\276Y\320\270\276\206}\301\276\305\031\261\276R\323\264\276S\236\303\276\340\201\303\276v:\314\276\023\221\311\276\250\013\306\276\317\352\302\276G\025\306\276\236\372\307\276\223\010\307\276t\350\257\276dT\307\276j\342\310\276\264\236\271\276Y\320\270\276\206}\301\276\350m\273\276\367\013\301\276\034`\267\276\340\201\303\276v:\314\276\023\221\311\276\250\013\306\276\317\352\302\276G\025\306\276\236\372\307\276\223\010\307\276t\350\257\276dT\307\276j\342\310\276\264\236\271\276Y\320\270\276\206}\301\276\350m\273\276\367\013\301\276\034`\267\276\275g\252\276\345\311\267\276s\334\302\276\250\013\306\276\317\352\302\276G\025\306\276\236\372\307\276\223\010\307\276t\350\257\276dT\307\276j\342\310\276\264\236\271\276Y\320\270\276\206}\301\276\350m\273\276\367\013\301\276\034`\267\276\275g\252\276\345\311\267\276s\334\302\276\306\322\310\276\232<\306\276\363w\275\276\236\372\307\276\223\010\307\276t\350\257\276dT\307\276j\342\310\276\264\236\271\276Y\320\270\276\206}\301\276\350m\273\276\367\013\301\276\034`\267\276\275g\252\276\345\311\267\276s\334\302\276\306\322\310\276\232<\306\276\363w\275\276\305\364\277\276LR\277\276\315\330\301\276dT\307\276j\342\310\276\264\236\271\276Y\320\270\276\206}\301\276\350m\273\276\367\013\301\276\034`\267\276\275g\252\276\345\311\267\276s\334\302\276\306\322\310\276\232<\306\276\363w\275\276\305\364\277\276LR\277\276\315\330\301\276\277\265\274\276\2373\272\276\004\327\305\276Y\320\270\276\206}\301\276\350m\273\276\367\013\301\276\034`\267\276\275g\252\276\345\311\267\276s\334\302\276\306\322\310\276\232<\306\276\363w\275\276\305\364\277\276LR\277\276\315\330\301\276\277\265\274\276\2373\272\276\004\327\305\276\350\321\302\276\326\250\275\2767\325\267\276\367\013\301\276\034`\267\276\275g\252\276\345\311\267\276s\334\302\276\306\322\310\276\232<\306\276\363w\275\276\305\364\277\276LR\277\276\315\330\301\276\277\265\274\276\2373\272\276\004\327\305\276\350\321\302\276\326\250\275\2767\325\267\2761\357\265\276\367\226\301\2762\305\275\276\345\311\267\276s\334\302\276\306\322\310\276\232<\306\276\363w\275\276\305\364\277\276LR\277\276\315\330\301\276\277\265\274\276\2373\272\276\004\327\305\276\350\321\302\276\326\250\275\2767\325\267\2761\357\265\276\367\226\301\2762\305\275\276+\244\307\276w{\277\276\034r\275\276\232<\306\276\363w\275\276\305\364\277\276LR\277\276\315\330\301\276\277\265\274\276\2373\272\276\004\327\305\276\350\321\302\276\326\250\275\2767\325\267\2761\357\265\276\367\226\301\2762\305\275\276+\244\307\276w{\277\276\034r\275\276Tl\273\276\022V\265\276\307J\302\276LR\277\276\315\330\301\276\277\265\274\276\2373\272\276\004\327\305\276\350\321\302\276\326\250\275\2767\325\267\2761\357\265\276\367\226\301\2762\305\275\276+\244\307\276w{\277\276\034r\275\276Tl\273\276\022V\265\276\307J\302\276\337`\307\276\327\224\306\276\246\276\305\276\2373\272\276\004\327\305\276\350\321\302\276\326\250\275\2767\325\267\2761\357\265\276\367\226\301\2762\305\275\276+\244\307\276w{\277\276\034r\275\276Tl\273\276\022V\265\276\307J\302\276\337`\307\276\327\224\306\276\246\276\305\276\235\223\302\276oY\302\276$\n\275\276\326\250\275\2767\325\267\2761\357\265\276\367\226\301\2762\305\275\276+\244\307\276w{\277\276\034r\275\276Tl\273\276\022V\265\276\307J\302\276\337`\307\276\327\224\306\276\246\276\305\276\235\223\302\276oY\302\276$\n\275\276\252K\272\276\265\357\301\276\357\235\301\276\367\226\301\2762\305\275\276+\244\307\276w{\277\276\034r\275\276Tl\273\276\022V\265\276\307J\302\276\337`\307\276\327\224\306\276\246\276\305\276\235\223\302\276oY\302\276$\n\275\276\252K\272\276\265\357\301\276\357\235\301\276\263\034\271\276\027h\263\276\211\n\301\276w{\277\276\034r\275\276Tl\273\276\022V\265\276\307J\302\276\337`\307\276\327\224\306\276\246\276\305\276\235\223\302\276oY\302\276$\n\275\276\252K\272\276\265\357\301\276\357\235\301\276\263\034\271\276\027h\263\276\211\n\301\276\'\023\272\276K\237\302\276Y\222\303\276\022V\265\276\307J\302\276\337`\307\276\327\224\306\276\246\276\305\276\235\223\302\276oY\302\276$\n\275\276\252K\272\276\265\357\301\276\357\235\301\276\263\034\271\276\027h\263\276\211\n\301\276\'\023\272\276K\237\302\276Y\222\303\276\023\255\270\276\035\024\244\276\324*\262\276\327\224\306\276\246\276\305\276\235\223\302\276oY\302\276$\n\275\276\252K\272\276\265\357\301\276\357\235\301\276\263\034\271\276\027h\263\276\211\n\301\276\'\023\272\276K\237\302\276Y\222\303\276\023\255\270\276\035\024\244\276\324*\262\276\277\310\266\276\3441\305\276\014R\304\276oY\302\276$\n\275\276\252K\272\276\265\357\301\276\357\235\301\276\263\034\271\276\027h\263\276\211\n\301\276\'\023\272\276K\237\302\276Y\222\303\276\023\255\270\276\035\024\244\276\324*\262\276\277\310\266\276\3441\305\276\014R\304\276\377\302\305\276E\307\300\276`}\303\276\265\357\301\276\357\235\301\276\263\034\271\276\027h\263\276\211\n\301\276\'\023\272\276K\237\302\276Y\222\303\276\023\255\270\276\035\024\244\276\324*\262\276\277\310\266\276\3441\305\276\014R\304\276\377\302\305\276E\307\300\276`}\303\276\035\320\276\276\253\252\261\276\353\215\276\276\027h\263\276\211\n\301\276\'\023\272\276K\237\302\276Y\222\303\276\023\255\270\276\035\024\244\276\324*\262\276\277\310\266\276\3441\305\276\014R\304\276\377\302\305\276E\307\300\276`}\303\276\035\320\276\276\253\252\261\276\353\215\276\276\026\233\276\276y@\306\276\257\354\276\276K\237\302\276Y\222\303\276\023\255\270\276\035\024\244\276\324*\262\276\277\310\266\276\3441\305\276\014R\304\276\377\302\305\276E\307\300\276`}\303\276\035\320\276\276\253\252\261\276\353\215\276\276\026\233\276\276y@\306\276\257\354\276\2765\332\272\276\027\357\270\276\202\021\266\276\035\024\244\276\324*\262\276\277\310\266\276\3441\305\276\014R\304\276\377\302\305\276E\307\300\276`}\303\276\035\320\276\276\253\252\261\276\353\215\276\276\026\233\276\276y@\306\276\257\354\276\2765\332\272\276\027\357\270\276\202\021\266\276M@\254\276\'\313\275\276\"6\263\276\3441\305\276\014R\304\276\377\302\305\276E\307\300\276`}\303\276\035\320\276\276\253\252\261\276\353\215\276\276\026\233\276\276y@\306\276\257\354\276\2765\332\272\276\027\357\270\276\202\021\266\276M@\254\276\'\313\275\276\"6\263\276\3621\277\276s\322\273\276\253|\274\276E\307\300\276`}\303\276\035\320\276\276\253\252\261\276\353\215\276\276\026\233\276\276y@\306\276\257\354\276\2765\332\272\276\027\357\270\276\202\021\266\276M@\254\276\'\313\275\276\"6\263\276\3621\277\276s\322\273\276\253|\274\276\036\302\304\276\352\322\276\276e\357\276\276\253\252\261\276\353\215\276\276\026\233\276\276y@\306\276\257\354\276\2765\332\272\276\027\357\270\276\202\021\266\276M@\254\276\'\313\275\276\"6\263\276\3621\277\276s\322\273\276\253|\274\276\036\302\304\276\352\322\276\276e\357\276\276\223A\304\276%V\303\276:\232\302\276y@\306\276\257\354\276\2765\332\272\276\027\357\270\276\202\021\266\276M@\254\276\'\313\275\276\"6\263\276\3621\277\276s\322\273\276\253|\274\276\036\302\304\276\352\322\276\276e\357\276\276\223A\304\276%V\303\276:\232\302\276\252\272\276\276\343\201\302\276\234\000\275\276\027\357\270\276\202\021\266\276M@\254\276\'\313\275\276\"6\263\276\3621\277\276s\322\273\276\253|\274\276\036\302\304\276\352\322\276\276e\357\276\276\223A\304\276%V\303\276:\232\302\276\252\272\276\276\343\201\302\276\234\000\275\276e\337\276\276\246\221\263\276\255\305\301\276\'\313\275\276\"6\263\276\3621\277\276s\322\273\276\253|\274\276\036\302\304\276\352\322\276\276e\357\276\276\223A\304\276%V\303\276:\232\302\276\252\272\276\276\343\201\302\276\234\000\275\276e\337\276\276\246\221\263\276\255\305\301\276?\325\306\276\323\033\300\276\376\200\300\276s\322\273\276\253|\274\276\036\302\304\276\352\322\276\276e\357\276\276\223A\304\276%V\303\276:\232\302\276\252\272\276\276\343\201\302\276\234\000\275\276e\337\276\276\246\221\263\276\255\305\301\276?\325\306\276\323\033\300\276\376\200\300\276\003\210\303\276<5\274\276g\227\271\276\352\322\276\276e\357\276\276\223A\304\276%V\303\276:\232\302\276\252\272\276\276\343\201\302\276\234\000\275\276e\337\276\276\246\221\263\276\255\305\301\276?\325\306\276\323\033\300\276\376\200\300\276\003\210\303\276<5\274\276g\227\271\276\313\311\230\276\350)\303\276\337N\301\276%V\303\276:\232\302\276\252\272\276\276\343\201\302\276\234\000\275\276e\337\276\276\246\221\263\276\255\305\301\276?\325\306\276\323\033\300\276\376\200\300\276\003\210\303\276<5\274\276g\227\271\276\313\311\230\276\350)\303\276\337N\301\276\000U\306\276\220\\\304\276\001\313\277\276\343\201\302\276\234\000\275\276e\337\276\276\246\221\263\276\255\305\301\276?\325\306\276\323\033\300\276\376\200\300\276\003\210\303\276<5\274\276g\227\271\276\313\311\230\276\350)\303\276\337N\301\276\000U\306\276\220\\\304\276\001\313\277\276\260K\303\276\332|\300\276\010i\303\276\246\221\263\276\255\305\301\276?\325\306\276\323\033\300\276\376\200\300\276\003\210\303\276<5\274\276g\227\271\276\313\311\230\276\350)\303\276\337N\301\276\000U\306\276\220\\\304\276\001\313\277\276\260K\303\276\332|\300\276\010i\303\276oC\301\276\231\330\266\276\333@\302\276\323\033\300\276\376\200\300\276\003\210\303\276<5\274\276g\227\271\276\313\311\230\276\350)\303\276\337N\301\276\000U\306\276\220\\\304\276\001\313\277\276\260K\303\276\332|\300\276\010i\303\276oC\301\276\231\330\266\276\333@\302\276g\234\304\276\342\225\306\276\317\360\277\276<5\274\276g\227\271\276\313\311\230\276\350)\303\276\337N\301\276\000U\306\276\220\\\304\276\001\313\277\276\260K\303\276\332|\300\276\010i\303\276oC\301\276\231\330\266\276\333@\302\276g\234\304\276\342\225\306\276\317\360\277\276\003S\301\276\264\316\303\276\357\312\302\276\350)\303\276\337N\301\276\000U\306\276\220\\\304\276\001\313\277\276\260K\303\276\332|\300\276\010i\303\276oC\301\276\231\330\266\276\333@\302\276g\234\304\276\342\225\306\276\317\360\277\276\003S\301\276\264\316\303\276\357\312\302\276\3068\266\276\010\316\263\276\243\362\251\276\220\\\304\276\001\313\277\276\260K\303\276\332|\300\276\010i\303\276oC\301\276\231\330\266\276\333@\302\276g\234\304\276\342\225\306\276\317\360\277\276\003S\301\276\264\316\303\276\357\312\302\276\3068\266\276\010\316\263\276\243\362\251\276A\247\233\276\030\220\215\276\273[\267\276\332|\300\276\010i\303\276oC\301\276\231\330\266\276\333@\302\276g\234\304\276\342\225\306\276\317\360\277\276\003S\301\276\264\316\303\276\357\312\302\276\3068\266\276\010\316\263\276\243\362\251\276A\247\233\276\030\220\215\276\273[\267\276f\212\307\276\3348\305\276\367P\270\276\231\330\266\276\333@\302\276g\234\304\276\342\225\306\276\317\360\277\276\003S\301\276\264\316\303\276\357\312\302\276\3068\266\276\010\316\263\276\243\362\251\276A\247\233\276\030\220\215\276\273[\267\276f\212\307\276\3348\305\276\367P\270\276\032\026\274\276(\260\306\276\005o\305\276\342\225\306\276\317\360\277\276\003S\301\276\264\316\303\276\357\312\302\276\3068\266\276\010\316\263\276\243\362\251\276A\247\233\276\030\220\215\276\273[\267\276f\212\307\276\3348\305\276\367P\270\276\032\026\274\276(\260\306\276\005o\305\276XN\311\276\r-\306\276\362\002\272\276\264\316\303\276\357\312\302\276\3068\266\276\010\316\263\276\243\362\251\276A\247\233\276\030\220\215\276\273[\267\276f\212\307\276\3348\305\276\367P\270\276\032\026\274\276(\260\306\276\005o\305\276XN\311\276\r-\306\276\362\002\272\276\026\217\302\276o\343\277\2765\324\252\276\010\316\263\276\243\362\251\276A\247\233\276\030\220\215\276\273[\267\276f\212\307\276\3348\305\276\367P\270\276\032\026\274\276(\260\306\276\005o\305\276XN\311\276\r-\306\276\362\002\272\276\026\217\302\276o\343\277\2765\324\252\276\\\205\224\276K\311s\276\250\\\252\276\030\220\215\276\273[\267\276f\212\307\276\3348\305\276\367P\270\276\032\026\274\276(\260\306\276\005o\305\276XN\311\276\r-\306\276\362\002\272\276\026\217\302\276o\343\277\2765\324\252\276\\\205\224\276K\311s\276\250\\\252\276\233\306\272\276d\002\267\276=\341\272\276\3348\305\276\367P\270\276\032\026\274\276(\260\306\276\005o\305\276XN\311\276\r-\306\276\362\002\272\276\026\217\302\276o\343\277\2765\324\252\276\\\205\224\276K\311s\276\250\\\252\276\233\306\272\276d\002\267\276=\341\272\276\"\206\241\276\372\226\276\276\031|\307\276(\260\306\276\005o\305\276XN\311\276\r-\306\276\362\002\272\276\026\217\302\276o\343\277\2765\324\252\276\\\205\224\276K\311s\276\250\\\252\276\233\306\272\276d\002\267\276=\341\272\276\"\206\241\276\372\226\276\276\031|\307\276\344\355\277\276>\302\271\2765\010\277\276\r-\306\276\362\002\272\276\026\217\302\276o\343\277\2765\324\252\276\\\205\224\276K\311s\276\250\\\252\276\233\306\272\276d\002\267\276=\341\272\276\"\206\241\276\372\226\276\276\031|\307\276\344\355\277\276>\302\271\2765\010\277\276Z)\244\276\224\014\267\276%\355\256\276o\343\277\2765\324\252\276\\\205\224\276K\311s\276\250\\\252\276\233\306\272\276d\002\267\276=\341\272\276\"\206\241\276\372\226\276\276\031|\307\276\344\355\277\276>\302\271\2765\010\277\276Z)\244\276\224\014\267\276%\355\256\276\027\322\273\276\300|\303\276\270+\277\276K\311s\276\250\\\252\276\233\306\272\276d\002\267\276=\341\272\276\"\206\241\276\372\226\276\276\031|\307\276\344\355\277\276>\302\271\2765\010\277\276Z)\244\276\224\014\267\276%\355\256\276\027\322\273\276\300|\303\276\270+\277\276\361\274\254\276\n\277\270\276>\266\301\276d\002\267\276=\341\272\276\"\206\241\276\372\226\276\276\031|\307\276\344\355\277\276>\302\271\2765\010\277\276Z)\244\276\224\014\267\276%\355\256\276\027\322\273\276\300|\303\276\270+\277\276\361\274\254\276\n\277\270\276>\266\301\276\374\233\300\276\262\242\271\276\252k\263\276\372\226\276\276\031|\307\276\344\355\277\276>\302\271\2765\010\277\276Z)\244\276\224\014\267\276%\355\256\276\027\322\273\276\300|\303\276\270+\277\276\361\274\254\276\n\277\270\276>\266\301\276\374\233\300\276\262\242\271\276\252k\263\276\005\213\262\276+\365\272\276Pj\247\276>\302\271\2765\010\277\276Z)\244\276\224\014\267\276%\355\256\276\027\322\273\276\300|\303\276\270+\277\276\361\274\254\276\n\277\270\276>\266\301\276\374\233\300\276\262\242\271\276\252k\263\276\005\213\262\276+\365\272\276Pj\247\2766$\241\2769H\235\276\246\342\225\276\224\014\267\276%\355\256\276\027\322\273\276\300|\303\276\270+\277\276\361\274\254\276\n\277\270\276>\266\301\276\374\233\300\276\262\242\271\276\252k\263\276\005\213\262\276+\365\272\276Pj\247\2766$\241\2769H\235\276\246\342\225\276\263@\251\276H\272\242\276+Z\247\276\300|\303\276\270+\277\276\361\274\254\276\n\277\270\276>\266\301\276\374\233\300\276\262\242\271\276\252k\263\276\005\213\262\276+\365\272\276Pj\247\2766$\241\2769H\235\276\246\342\225\276\263@\251\276H\272\242\276+Z\247\276\253\307\275\276\2607\250\276X\370\273\276\n\277\270\276>\266\301\276\374\233\300\276\262\242\271\276\252k\263\276\005\213\262\276+\365\272\276Pj\247\2766$\241\2769H\235\276\246\342\225\276\263@\251\276H\272\242\276+Z\247\276\253\307\275\276\2607\250\276X\370\273\276\017}\274\276\035m\305\276L\370\274\276\262\242\271\276\252k\263\276\005\213\262\276+\365\272\276Pj\247\2766$\241\2769H\235\276\246\342\225\276\263@\251\276H\272\242\276+Z\247\276\253\307\275\276\2607\250\276X\370\273\276\017}\274\276\035m\305\276L\370\274\276C\310\273\276e\234\311\276~\327\266\276+\365\272\276Pj\247\2766$\241\2769H\235\276\246\342\225\276\263@\251\276H\272\242\276+Z\247\276\253\307\275\276\2607\250\276X\370\273\276\017}\274\276\035m\305\276L\370\274\276C\310\273\276e\234\311\276~\327\266\276?\353\247\276\037\"\271\276/\t\271\2769H\235\276\246\342\225\276\263@\251\276H\272\242\276+Z\247\276\253\307\275\276\2607\250\276X\370\273\276\017}\274\276\035m\305\276L\370\274\276C\310\273\276e\234\311\276~\327\266\276?\353\247\276\037\"\271\276/\t\271\276x\004\300\276g\\\251\276\331\n\263\276H\272\242\276+Z\247\276\253\307\275\276\2607\250\276X\370\273\276\017}\274\276\035m\305\276L\370\274\276C\310\273\276e\234\311\276~\327\266\276?\353\247\276\037\"\271\276/\t\271\276x\004\300\276g\\\251\276\331\n\263\276\335\366\266\276=\311\267\276\260\245\272\276\2607\250\276X\370\273\276\017}\274\276\035m\305\276L\370\274\276C\310\273\276e\234\311\276~\327\266\276?\353\247\276\037\"\271\276/\t\271\276x\004\300\276g\\\251\276\331\n\263\276\335\366\266\276=\311\267\276\260\245\272\276\236\r\300\276\311\234\276\276\202\264\267\276\035m\305\276L\370\274\276C\310\273\276e\234\311\276~\327\266\276?\353\247\276\037\"\271\276/\t\271\276x\004\300\276g\\\251\276\331\n\263\276\335\366\266\276=\311\267\276\260\245\272\276\236\r\300\276\311\234\276\276\202\264\267\276\364X\300\276\030\355\307\276FW\264\276e\234\311\276~\327\266\276?\353\247\276\037\"\271\276/\t\271\276x\004\300\276g\\\251\276\331\n\263\276\335\366\266\276=\311\267\276\260\245\272\276\236\r\300\276\311\234\276\276\202\264\267\276\364X\300\276\030\355\307\276FW\264\276\266\354\274\276\237r\303\276\372g\250\276\037\"\271\276/\t\271\276x\004\300\276g\\\251\276\331\n\263\276\335\366\266\276=\311\267\276\260\245\272\276\236\r\300\276\311\234\276\276\202\264\267\276\364X\300\276\030\355\307\276FW\264\276\266\354\274\276\237r\303\276\372g\250\276\331\022\305\276\006\246\300\276zF\266\276g\\\251\276\331\n\263\276\335\366\266\276=\311\267\276\260\245\272\276\236\r\300\276\311\234\276\276\202\264\267\276\364X\300\276\030\355\307\276FW\264\276\266\354\274\276\237r\303\276\372g\250\276\331\022\305\276\006\246\300\276zF\266\276\303\202\273\276O\343\271\276Ml\277\276=\311\267\276\260\245\272\276\236\r\300\276\311\234\276\276\202\264\267\276\364X\300\276\030\355\307\276FW\264\276\266\354\274\276\237r\303\276\372g\250\276\331\022\305\276\006\246\300\276zF\266\276\303\202\273\276O\343\271\276Ml\277\276\257U\306\276\230\312\303\276\341\215\303\276\311\234\276\276\202\264\267\276\364X\300\276\030\355\307\276FW\264\276\266\354\274\276\237r\303\276\372g\250\276\331\022\305\276\006\246\300\276zF\266\276\303\202\273\276O\343\271\276Ml\277\276\257U\306\276\230\312\303\276\341\215\303\276\031\365\277\276D\036\274\276\320\330\276\276\030\355\307\276FW\264\276\266\354\274\276\237r\303\276\372g\250\276\331\022\305\276\006\246\300\276zF\266\276\303\202\273\276O\343\271\276Ml\277\276\257U\306\276\230\312\303\276\341\215\303\276\031\365\277\276D\036\274\276\320\330\276\276K\t\276\276\3421\277\276\037I\277\276\237r\303\276\372g\250\276\331\022\305\276\006\246\300\276zF\266\276\303\202\273\276O\343\271\276Ml\277\276\257U\306\276\230\312\303\276\341\215\303\276\031\365\277\276D\036\274\276\320\330\276\276K\t\276\276\3421\277\276\037I\277\276\023\032\310\276\316j\306\276\357\273\303\276\006\246\300\276zF\266\276\303\202\273\276O\343\271\276Ml\277\276\257U\306\276\230\312\303\276\341\215\303\276\031\365\277\276D\036\274\276\320\330\276\276K\t\276\276\3421\277\276\037I\277\276\023\032\310\276\316j\306\276\357\273\303\276,\356\300\276\3526\271\276\017\'\304\276O\343\271\276Ml\277\276\257U\306\276\230\312\303\276\341\215\303\276\031\365\277\276D\036\274\276\320\330\276\276K\t\276\276\3421\277\276\037I\277\276\023\032\310\276\316j\306\276\357\273\303\276,\356\300\276\3526\271\276\017\'\304\276D\232\273\276\274I\263\276V\325\271\276\230\312\303\276\341\215\303\276\031\365\277\276D\036\274\276\320\330\276\276K\t\276\276\3421\277\276\037I\277\276\023\032\310\276\316j\306\276\357\273\303\276,\356\300\276\3526\271\276\017\'\304\276D\232\273\276\274I\263\276V\325\271\276c\366\266\276\374`\277\276>\016\300\276D\036\274\276\320\330\276\276K\t\276\276\3421\277\276\037I\277\276\023\032\310\276\316j\306\276\357\273\303\276,\356\300\276\3526\271\276\017\'\304\276D\232\273\276\274I\263\276V\325\271\276c\366\266\276\374`\277\276>\016\300\2763\300\251\276\244\211\273\276\033\214\302\276\3421\277\276\037I\277\276\023\032\310\276\316j\306\276\357\273\303\276,\356\300\276\3526\271\276\017\'\304\276D\232\273\276\274I\263\276V\325\271\276c\366\266\276\374`\277\276>\016\300\2763\300\251\276\244\211\273\276\033\214\302\276\216\202\275\276dz\256\276)\350\263\276\316j\306\276\357\273\303\276,\356\300\276\3526\271\276\017\'\304\276D\232\273\276\274I\263\276V\325\271\276c\366\266\276\374`\277\276>\016\300\2763\300\251\276\244\211\273\276\033\214\302\276\216\202\275\276dz\256\276)\350\263\276\026\277\256\276\202\223\277\276\314\332\303\276\3526\271\276\017\'\304\276D\232\273\276\274I\263\276V\325\271\276c\366\266\276\374`\277\276>\016\300\2763\300\251\276\244\211\273\276\033\214\302\276\216\202\275\276dz\256\276)\350\263\276\026\277\256\276\202\223\277\276\314\332\303\276\310%\306\2765\372\276\276\306\271\302\276\274I\263\276V\325\271\276c\366\266\276\374`\277\276>\016\300\2763\300\251\276\244\211\273\276\033\214\302\276\216\202\275\276dz\256\276)\350\263\276\026\277\256\276\202\223\277\276\314\332\303\276\310%\306\2765\372\276\276\306\271\302\276-\206\300\276\353)\302\276h,\303\276\374`\277\276>\016\300\2763\300\251\276\244\211\273\276\033\214\302\276\216\202\275\276dz\256\276)\350\263\276\026\277\256\276\202\223\277\276\314\332\303\276\310%\306\2765\372\276\276\306\271\302\276-\206\300\276\353)\302\276h,\303\276\375\360\277\276\227.\276\276\023~\300\276\244\211\273\276\033\214\302\276\216\202\275\276dz\256\276)\350\263\276\026\277\256\276\202\223\277\276\314\332\303\276\310%\306\2765\372\276\276\306\271\302\276-\206\300\276\353)\302\276h,\303\276\375\360\277\276\227.\276\276\023~\300\276\330\330\300\276~\016\277\276I\013\270\276dz\256\276)\350\263\276\026\277\256\276\202\223\277\276\314\332\303\276\310%\306\2765\372\276\276\306\271\302\276-\206\300\276\353)\302\276h,\303\276\375\360\277\276\227.\276\276\023~\300\276\330\330\300\276~\016\277\276I\013\270\276m\246\303\27677\254\2769\222\275\276\202\223\277\276\314\332\303\276\310%\306\2765\372\276\276\306\271\302\276-\206\300\276\353)\302\276h,\303\276\375\360\277\276\227.\276\276\023~\300\276\330\330\300\276~\016\277\276I\013\270\276m\246\303\27677\254\2769\222\275\276ee\262\276\355|\260\276\024\200\252\2765\372\276\276\306\271\302\276-\206\300\276\353)\302\276h,\303\276\375\360\277\276\227.\276\276\023~\300\276\330\330\300\276~\016\277\276I\013\270\276m\246\303\27677\254\2769\222\275\276ee\262\276\355|\260\276\024\200\252\276\230i\301\276\254y\271\276\013X\273\276\353)\302\276h,\303\276\375\360\277\276\227.\276\276\023~\300\276\330\330\300\276~\016\277\276I\013\270\276m\246\303\27677\254\2769\222\275\276ee\262\276\355|\260\276\024\200\252\276\230i\301\276\254y\271\276\013X\273\276\370\024\272\2762A\277\276\245\341\275\276\227.\276\276\023~\300\276\330\330\300\276~\016\277\276I\013\270\276m\246\303\27677\254\2769\222\275\276ee\262\276\355|\260\276\024\200\252\276\230i\301\276\254y\271\276\013X\273\276\370\024\272\2762A\277\276\245\341\275\276\"d\267\276\234\373\300\276\033\371\276\276~\016\277\276I\013\270\276m\246\303\27677\254\2769\222\275\276ee\262\276\355|\260\276\024\200\252\276\230i\301\276\254y\271\276\013X\273\276\370\024\272\2762A\277\276\245\341\275\276\"d\267\276\234\373\300\276\033\371\276\276\240\277\277\276\223\273\301\276w\326\304\27677\254\2769\222\275\276ee\262\276\355|\260\276\024\200\252\276\230i\301\276\254y\271\276\013X\273\276\370\024\272\2762A\277\276\245\341\275\276\"d\267\276\234\373\300\276\033\371\276\276\240\277\277\276\223\273\301\276w\326\304\276<\302\300\276\275L\276\276\032V\310\276\355|\260\276\024\200\252\276\230i\301\276\254y\271\276\013X\273\276\370\024\272\2762A\277\276\245\341\275\276\"d\267\276\234\373\300\276\033\371\276\276\240\277\277\276\223\273\301\276w\326\304\276<\302\300\276\275L\276\276\032V\310\276\320\334\306\276\277\004\306\276\232\005\300\276\254y\271\276\013X\273\276\370\024\272\2762A\277\276\245\341\275\276\"d\267\276\234\373\300\276\033\371\276\276\240\277\277\276\223\273\301\276w\326\304\276<\302\300\276\275L\276\276\032V\310\276\320\334\306\276\277\004\306\276\232\005\300\276+\026\302\276\327\211\261\276~\n\246\2762A\277\276\245\341\275\276\"d\267\276\234\373\300\276\033\371\276\276\240\277\277\276\223\273\301\276w\326\304\276<\302\300\276\275L\276\276\032V\310\276\320\334\306\276\277\004\306\276\232\005\300\276+\026\302\276\327\211\261\276~\n\246\276\306\037\301\276=\270\301\276;\006\304\276\234\373\300\276\033\371\276\276\240\277\277\276\223\273\301\276w\326\304\276<\302\300\276\275L\276\276\032V\310\276\320\334\306\276\277\004\306\276\232\005\300\276+\026\302\276\327\211\261\276~\n\246\276\306\037\301\276=\270\301\276;\006\304\276=\\\271\276\353%\270\276\227\353\271\276\223\273\301\276w\326\304\276<\302\300\276\275L\276\276\032V\310\276\320\334\306\276\277\004\306\276\232\005\300\276+\026\302\276\327\211\261\276~\n\246\276\306\037\301\276=\270\301\276;\006\304\276=\\\271\276\353%\270\276\227\353\271\276\211\"\267\276\321\n\302\276\207\005\301\276\275L\276\276\032V\310\276\320\334\306\276\277\004\306\276\232\005\300\276+\026\302\276\327\211\261\276~\n\246\276\306\037\301\276=\270\301\276;\006\304\276=\\\271\276\353%\270\276\227\353\271\276\211\"\267\276\321\n\302\276\207\005\301\276]Z\252\276N\315\245\276\265\255\276\276\277\004\306\276\232\005\300\276+\026\302\276\327\211\261\276~\n\246\276\306\037\301\276=\270\301\276;\006\304\276=\\\271\276\353%\270\276\227\353\271\276\211\"\267\276\321\n\302\276\207\005\301\276]Z\252\276N\315\245\276\265\255\276\276\353\275\304\276\010\237\273\276\341\214\300\276\327\211\261\276~\n\246\276\306\037\301\276=\270\301\276;\006\304\276=\\\271\276\353%\270\276\227\353\271\276\211\"\267\276\321\n\302\276\207\005\301\276]Z\252\276N\315\245\276\265\255\276\276\353\275\304\276\010\237\273\276\341\214\300\276\271\354\273\276P\356\266\276\017.\244\276=\270\301\276;\006\304\276=\\\271\276\353%\270\276\227\353\271\276\211\"\267\276\321\n\302\276\207\005\301\276]Z\252\276N\315\245\276\265\255\276\276\353\275\304\276\010\237\273\276\341\214\300\276\271\354\273\276P\356\266\276\017.\244\276\331\246\270\276\270\344\303\276zp\303\276\353%\270\276\227\353\271\276\211\"\267\276\321\n\302\276\207\005\301\276]Z\252\276N\315\245\276\265\255\276\276\353\275\304\276\010\237\273\276\341\214\300\276\271\354\273\276P\356\266\276\017.\244\276\331\246\270\276\270\344\303\276zp\303\276\207\245\275\276\tQ\263\276\375\216\311\276\321\n\302\276\207\005\301\276]Z\252\276N\315\245\276\265\255\276\276\353\275\304\276\010\237\273\276\341\214\300\276\271\354\273\276P\356\266\276\017.\244\276\331\246\270\276\270\344\303\276zp\303\276\207\245\275\276\tQ\263\276\375\216\311\276\034p\310\276\204\277\307\276\023\352\275\276N\315\245\276\265\255\276\276\353\275\304\276\010\237\273\276\341\214\300\276\271\354\273\276P\356\266\276\017.\244\276\331\246\270\276\270\344\303\276zp\303\276\207\245\275\276\tQ\263\276\375\216\311\276\034p\310\276\204\277\307\276\023\352\275\276w\267\277\276\241\301\307\276D\262\302\276\010\237\273\276\341\214\300\276\271\354\273\276P\356\266\276\017.\244\276\331\246\270\276\270\344\303\276zp\303\276\207\245\275\276\tQ\263\276\375\216\311\276\034p\310\276\204\277\307\276\023\352\275\276w\267\277\276\241\301\307\276D\262\302\276rL\304\276\016,\307\276\2627\301\276P\356\266\276\017.\244\276\331\246\270\276\270\344\303\276zp\303\276\207\245\275\276\tQ\263\276\375\216\311\276\034p\310\276\204\277\307\276\023\352\275\276w\267\277\276\241\301\307\276D\262\302\276rL\304\276\016,\307\276\2627\301\276\370\304\311\276qq\276\276\202o\261\276\270\344\303\276zp\303\276\207\245\275\276\tQ\263\276\375\216\311\276\034p\310\276\204\277\307\276\023\352\275\276w\267\277\276\241\301\307\276D\262\302\276rL\304\276\016,\307\276\2627\301\276\370\304\311\276qq\276\276\202o\261\276\014\n\267\276r\270\275\276Z\301\277\276\tQ\263\276\375\216\311\276\034p\310\276\204\277\307\276\023\352\275\276w\267\277\276\241\301\307\276D\262\302\276rL\304\276\016,\307\276\2627\301\276\370\304\311\276qq\276\276\202o\261\276\014\n\267\276r\270\275\276Z\301\277\276fL\277\276\233\000\271\276\245\"\255\276\204\277\307\276\023\352\275\276w\267\277\276\241\301\307\276D\262\302\276rL\304\276\016,\307\276\2627\301\276\370\304\311\276qq\276\276\202o\261\276\014\n\267\276r\270\275\276Z\301\277\276fL\277\276\233\000\271\276\245\"\255\276\007D\260\276\311\006\270\276\035f\307\276\241\301\307\276D\262\302\276rL\304\276\016,\307\276\2627\301\276\370\304\311\276qq\276\276\202o\261\276\014\n\267\276r\270\275\276Z\301\277\276fL\277\276\233\000\271\276\245\"\255\276\007D\260\276\311\006\270\276\035f\307\276\274Y\267\276\276\032\266\276\261\222\265\276\016,